[PAD]
[UNK]
[CLS]
[SEP]
[MASK]
!
"
#
$
%
&
'
(
)
*
+
,
-
.
/
0
1
2
3
4
5
6
7
8
9
:
;
<
=
>
?
@
[
]
^
_
`
a
b
c
d
e
f
g
h
i
j
k
l
m
n
o
p
q
r
s
t
u
v
w
x
y
z
{
|
}
~
¡
¢
£
¤
¥
¦
§
¨
©
ª
«
¬
®
°
±
²
³
´
¶
·
¸
¹
º
»
¼
½
¿
×
à
á
â
ã
ä
å
æ
ç
è
é
ê
ë
ì
í
î
ï
ð
ñ
ó
ô
õ
ö
÷
ø
ù
ú
û
ü
ý
þ
ÿ
ā
ă
ą
ć
č
đ
ę
ě
ğ
ġ
ģ
ĥ
ħ
ī
ı
ķ
ł
ō
ő
ř
ś
ŝ
ş
š
ŧ
ū
ź
ż
ž
ǿ
ș
ɑ
ə
ʹ
ʾ
ʿ
˘
̆
̇
̈
̧
ά
έ
ή
ί
α
β
γ
δ
ε
η
θ
ι
κ
λ
μ
ν
ο
π
ρ
σ
τ
υ
φ
χ
ω
ό
ύ
а
б
в
г
д
е
ж
з
и
й
к
л
м
н
о
п
р
с
т
у
ф
х
ц
ч
ш
щ
ы
ь
э
ю
я
ѕ
і
ա
ի
ն
ո
ր
א
ב
ה
ו
ח
י
ל
מ
ר
ש
ת
،
ء
آ
أ
إ
ئ
ا
ب
ة
ت
ث
ج
ح
خ
د
ذ
ر
ز
س
ش
ص
ض
ط
ع
غ
ـ
ف
ق
ك
ل
م
ن
ه
و
ى
ي
ً
َ
ُ
ِ
ّ
ْ
٫
پ
ک
گ
ی
ा
ন
র
া
ি
ে
্
ก
น
ร
อ
า
เ
่
ᴏ
ḥ
ḳ
ṣ
ṭ
–
—
‘
’
‚
“
”
„
‟
•
…
′
″
‹
›
€
₺
™
←
→
−
■
►
●
★
☺
♥
♦
✔
❤
➖
⠀
、
。
あ
い
う
お
か
が
き
く
こ
さ
し
す
た
っ
て
で
と
な
に
の
は
ま
も
ら
り
る
れ
を
ん
ア
イ
ク
ス
ッ
ト
ラ
リ
ル
ン
・
ー
一
三
上
下
不
个
中
么
乐
了
争
京
人
以
会
作
信
全
公
出
分
北
发
可
合
吗
和
品
国
图
在
地
多
大
天
奖
子
学
官
家
小
市
平
年
开
彩
心
快
怎
成
我
手
料
新
方
日
时
是
最
月
有
期
本
机
果
水
法
港
版
特
理
生
用
的
码
神
票
网
美
肖
能
行
覺
论
说
谋
赛
车
金
霸
香
马
高
﴾
﴿
️
！
（
）
，
🇷
🇹
🏻
👉
👍
👏
💕
😀
😂
😉
😊
😍
🙁
🙂
🙏
🤗
##u
##n
##a
##l
##ı
##i
##g
##e
##d
##r
##m
##h
##y
##t
##1
##3
##5
##ş
##k
##е
##ç
##v
##z
##¦
##´
##s
##f
##o
##ü
##c
##ğ
##p
##ö
##b
##â
##9
##8
##2
##4
##6
##7
##0
##理
##ñ
##ا
##س
##ز
##ی
##j
##ý
##w
##ル
##ア
##ل
##ك
##ء
##x
##î
##å
##ÿ
##ä
##±
##þ
##ð
##̆
##q
##は
##מ
##ל
##א
##י
##ー
##π
##ο
##χ
##ρ
##η
##σ
##α
##ν
##ā
##é
##о
##у
##ш
##и
##ô
##ī
##č
##̧
##ր
##ա
##ո
##ն
##ū
##û
##і
##®
##ã
##¢
##ι
##λ
##τ
##ή
##ω
##💕
##р
##н
##ж
##º
##̇
##ġ
##ō
##ص
##ح
##ي
##ن
##м
##л
##ø
##ª
##ù
##°
##¨
##õ
##á
##ю
##б
##т
##ь
##с
##к
##ᴏ
##í
##い
##に
##れ
##て
##ま
##す
##̈
##是
##¬
##在
##高
##网
##开
##ر
##و
##า
##ร
##เ
##น
##😍
##リ
##è
##½
##ï
##ģ
##合
##的
##大
##分
##信
##一
##ф
##а
##з
##ы
##в
##快
##я
##ف
##ه
##ش
##د
##β
##μ
##ε
##ί
##ķ
##ר
##غ
##ب
##ő
##成
##年
##生
##ン
##の
##手
##ș
##ê
##特
##ʾ
##京
##赛
##车
##发
##中
##国
##下
##人
##が
##で
##あ
##り
##п
##ѕ
##г
##家
##上
##有
##ा
##ǿ
##х
##¤
##ک
##く
##地
##な
##出
##か
##る
##を
##ラ
##彩
##怎
##么
##ْ
##م
##َ
##ِ
##ة
##ę
##ч
##图
##š
##水
##了
##肖
##最
##天
##机
##料
##ت
##ë
##覺
##ž
##ق
##ئ
##全
##法
##用
##品
##ɑ
##多
##¼
##ع
##さ
##φ
##υ
##κ
##ό
##ó
##ו
##ת
##ì
##行
##时
##×
##ի
##香
##港
##奖
##码
##学
##个
##新
##方
##可
##以
##市
##÷
##™
##小
##马
##ц
##不
##和
##た
##đ
##き
##お
##ב
##🙏
##😊
##ج
##ُ
##ś
##¸
##っ
##й
##่
##し
##と
##ん
##三
##ʹ
##官
##票
##ى
##う
##ă
##ł
##ą
##👍
##ə
##️
##ά
##イ
##ッ
##ّ
##神
##أ
##ً
##ύ
##作
##ト
##²
##😂
##ذ
##€
##😀
##🏻
##ě
##ח
##美
##😉
##ż
##ć
##д
##❤
##►
##心
##³
##à
##£
##金
##期
##ে
##ら
##э
##日
##本
##ħ
##→
##δ
##公
##ث
##ṣ
##ʿ
##会
##能
##خ
##ス
##🤗
##©
##争
##¹
##ĥ
##乐
##ク
##ה
##ř
##🇷
##্
##া
##র
##إ
##も
##こ
##我
##ḳ
##έ
##版
##ض
##🇹
##ź
##ก
##γ
##吗
##ש
##ú
##♥
##月
##ط
##👉
##子
##ŝ
##æ
##平
##پ
##果
##ḥ
##щ
##گ
##★
##ŧ
##北
##˘
##อ
##ন
##➖
##ـ
##论
##✔
##آ
##说
##谋
##☺
##¥
##ṭ
##−
##ি
##θ
##🙂
##霸
##♦
##👏
##₺
##⠀
##🙁
##←
##●
##■
##la
##er
##in
##an
##ın
##en
##ir
##ar
##lar
##il
##ak
##le
##ek
##ma
##ler
##de
##da
##li
##un
##lı
##or
ve
##et
##iy
##es
bir
##on
ka
##ur
##dı
ya
##im
##iz
##lan
##at
##di
##el
de
##as
##ün
##ay
##tı
bu
##em
##ür
ba
da
ol
##st
##am
##ik
##ey
##ların
##al
##den
##dan
##it
gö
##um
##ya
##ları
##ul
##ra
##ız
##iş
##lerin
iç
##ğı
##du
##is
##ıl
sa
##ında
yap
##ok
##ce
baş
##ık
an
##leri
##ti
##ış
##ta
##me
##yor
##ır
##ol
##inde
##ine
##sı
##ük
al
in
##esi
ar
##ini
##üz
##ım
##az
##lik
##te
##ab
##iler
ge
##iye
kar
için
##ını
gör
##dir
ile
##üm
et
##ca
##ev
son
##uş
##mak
##lık
##ği
il
##uz
##iyor
##oğ
##cak
##dır
##ına
kon
##ut
ay
ön
##lu
ver
bil
ger
##ara
##ön
##len
##ha
##mek
oldu
##bil
en
iş
ed
##anı
##ah
##üş
##tir
##cı
ist
##inin
##ec
##larak
kur
##uk
##şı
##alı
tür
##tır
ne
##se
##ından
##ro
##us
yer
##ez
##ki
##ması
or
##unu
gün
değ
##lay
olarak
##ül
##man
ta
20
##ib
yıl
te
aç
bul
bü
ko
##öy
##lama
kad
##mış
çok
##laş
ha
##aki
gel
türk
##op
##sa
ak
##ası
her
olan
##miş
sür
##tan
on
başk
geç
##imiz
##ının
ma
ken
daha
##ili
ara
olduğ
##yon
öz
##eki
çalı
be
##ör
bel
##eni
çık
##arı
kul
##zer
mü
yaş
##ci
##yla
kay
var
dev
uy
##ibi
çalış
##ken
se
##iniz
pro
büy
##ip
er
##eye
##let
yapı
##eh
##mas
##dığı
top
##lü
##os
##ret
tek
gen
yön
##leş
kullan
yan
üzer
##fa
yar
##öyle
bak
##met
##larını
tar
##ih
##ilen
bulun
gibi
##aman
sağ
##va
##ist
##ed
par
##ka
##ru
##san
##iyle
201
##lara
say
##daki
mil
##unda
doğ
##aya
ama
##mız
##lerini
##ecek
den
gü
dur
##si
ben
büyük
##ter
kap
##isi
##bilir
kal
##id
düş
oy
hay
gerek
##cu
sor
ek
bo
ev
tara
##ers
##uşt
##ildi
kı
olma
sonra
##ap
##re
yaz
dön
##asında
##ğini
biz
##mesi
kadar
##öl
karşı
##men
türkiye
bun
taraf
öğ
yak
##öz
##ğını
##inden
yeni
hak
zaman
##liş
##ic
##om
##ren
belir
es
##ba
yüz
##dür
ola
mu
açık
eğ
ın
##gi
##lem
alan
sah
is
##eş
##uy
do
##çek
##ark
##maya
böl
nin
##gu
as
##arak
##ten
ise
mer
##ece
tem
hal
san
##deki
ilk
##dım
##ede
el
##eri
##iyet
##lığı
##larda
uz
##lere
özel
has
##ot
düz
##bul
##erek
yol
##ran
dün
şek
##ley
der
bur
kiş
gir
##rı
##iç
##led
##ladı
##lam
##tü
iz
##esinde
##kin
bin
##ram
sev
ot
ok
##aber
##iv
gerçek
##eli
##if
##diği
iy
su
ser
insan
##larının
##ılı
##dü
##lat
##00
ilg
##imi
alt
yük
har
hem
sı
tak
##ğu
at
##est
##dik
göre
yaptı
po
beled
önem
kaz
##ıyor
##por
ço
##yan
##be
##ge
tarafından
kendi
ül
ad
##larına
etti
##tik
ada
ter
##ınız
##liy
##çe
ün
kan
göz
un
##lerinin
##ster
di
tarih
siz
söz
şey
##lerde
##yı
##ile
##abil
##aret
haz
önce
ab
##sel
##tr
##daş
söyle
19
##ıs
get
##mes
değil
iyi
##lah
##una
seç
ih
devam
tüm
neden
##larında
##lerine
yet
öğren
##bir
olduğu
göster
##uştur
yönet
##maz
ort
getir
ülk
##leştir
çalışma
çek
av
##uyor
kor
##sun
##şa
yok
olduğunu
nın
genel
##liği
durum
##ünü
başkanı
##art
##sız
##ne
dedi
haber
tan
hiz
mah
##han
##atı
fark
ki
##ven
##der
##tür
düzen
eğit
##asyon
veya
iki
##makta
mo
hizmet
ilgili
kurul
th
##cuk
edil
alın
##tar
##üs
##dık
##mekte
##ça
##ehir
##tık
##kez
şekil
##anbul
##ada
birlik
bilg
##ye
bas
##unun
az
diye
başkan
tut
##ileri
önemli
sen
hat
merkez
mes
hiç
dış
değer
##diğ
istanbul
##raf
çocuk
bek
yay
bay
kö
##ep
##lığ
alı
bağ
sonu
ayn
##eyi
##up
ban
duy
gelen
kam
##dur
##ad
ör
##mir
değiş
##meye
##siniz
yapılan
şu
uygu
##lek
##ındaki
##lim
katı
##lerinde
geliş
öl
##ğer
ede
kend
##leme
im
10
tes
##dar
hayat
şekilde
##cek
##lardan
##şk
güven
##ıldı
##siz
eğitim
##usu
##larımız
##tör
hakk
##ımız
kim
sat
güz
saat
##acak
arasında
##ağ
##eme
tur
##liğ
##gün
##olo
içinde
##ıp
##fade
##lendir
kadın
em
##ig
##üt
gaz
aynı
##larla
##likle
kes
eden
##sal
##üp
oyun
hazır
ifade
sahip
görev
##ünde
birlikte
ediyor
cum
##lacak
diğer
baz
##mam
ayrı
dönem
##enin
fa
zor
faz
##lis
eş
üret
##hur
##na
##maktadır
##mektedir
tekn
güzel
dan
haf
ancak
konu
15
üst
##ilik
ür
dik
kat
##rup
##sek
müdür
yardım
eki
sal
##atan
sist
belediye
##elik
##landı
##iyat
fazla
##det
büt
bey
##ayı
ye
içer
tab
##lanan
##ing
kazan
##bet
so
proj
##ban
##emiz
##ğü
iliş
cumhur
##ket
##ika
##cağı
##oloj
##oğlu
##cü
dünya
##´n
sistem
can
##ide
##layan
karar
etk
düşün
##fer
##van
ağ
böyle
##ilerin
kom
##lerle
##gram
##olu
kız
doğru
kü
arka
##eyen
bulunan
##laya
çev
olmak
ik
##gı
olay
muh
boy
olur
##üne
##ch
vatan
sade
##ali
yüksek
ard
##ivers
nas
ku
##rak
ulaş
the
açıklama
##indeki
##lerden
man
##iversit
sit
orta
##kü
##lak
devlet
abd
çıkar
sek
kır
##uştu
konuş
sıra
##iyas
yüzde
##mi
##ısı
re
##lerinden
##mıştır
üniversit
##ımı
olacak
yür
##ira
dest
##iyon
bulundu
##gun
gön
kit
bugün
süre
bölg
##lo
sadece
genç
##tığı
mak
git
bah
ardından
##cağ
güç
mar
met
bır
res
bakan
##lerimiz
##larından
##sam
##osy
görün
mut
am
bütün
ürün
destek
harek
sağlık
farklı
##üyor
hava
##liyor
belirt
##kat
##ayan
bunun
üzerine
sık
##lıyor
program
bit
##muş
ilç
##ans
##masını
##luk
##gan
##ıcı
fak
##esine
##eti
12
##iyorum
mad
gerçekleştir
bırak
spor
##miştir
##iya
pay
bazı
##kı
##ri
##abilir
##lenen
geçir
kaç
fil
##kan
yaptığı
##lantı
na
nasıl
##sta
başka
##asar
görüş
##mı
##çı
ber
üç
##dim
milyon
dikkat
ekip
##isinde
11
tele
2019
üzere
##masına
yapıl
han
uzun
hep
bar
dav
##tal
##dığını
bölüm
millet
kayn
ulu
##mal
fir
din
##ulu
##eb
kişi
##usunda
sun
##bar
iste
for
mey
ch
##mem
başarı
mev
işlem
teş
tah
ah
##ğır
sosy
hasta
##ver
vatandaş
##mez
yayın
ülke
tamam
##tu
##mıştı
##bol
kurum
to
gid
ziy
şir
gele
hız
şeh
##per
##doğ
yaklaş
##onom
##af
belediy
bile
geldi
##tırma
öğrenc
##çi
200
ey
##kara
##ılan
id
hakkında
üzerinde
olması
oluştur
halk
##eceğ
##lük
##uma
rah
##net
##manın
##las
kül
olduk
dil
ziyaret
ho
kapsam
başladı
plan
benim
hareket
geçen
deniz
sosyal
##bi
kr
##liyet
##gil
sır
##işim
şim
biri
##ve
dir
##ümüz
öğret
##bilirsiniz
yönetim
##vaş
tam
hük
of
yor
iht
yılında
##dem
sonr
anla
cez
seçim
ses
yakın
arkadaş
araç
küç
ro
##za
vur
##bah
##muz
##malı
mahal
günü
##lum
şirket
söyledi
kav
para
dolay
##for
ortaya
kaynak
##yle
önc
##iyoruz
nok
##fon
mi
diy
eder
sak
uygulama
ayrıca
onun
##mayı
taş
burada
yara
##urt
bunu
sorun
##pr
yaşam
##umuz
ekonom
taşı
18
yapan
mal
dok
maç
30
##rar
bor
hiçbir
##ber
ankara
sur
oda
##anın
##sin
parti
yerine
uygun
eski
dr
##şehir
hastan
kabul
per
kil
takım
çöz
fiyat
paz
araş
bizim
sav
müca
gönder
yatır
çün
mem
si
##ıt
yine
anlam
tat
avrup
sonuç
edildi
du
çünkü
##asına
yen
it
veril
artık
küçük
mücade
madde
ikin
kültür
##esinin
nde
hede
kendis
hedef
çar
koy
##ici
oluş
köy
edilen
değerlendir
##gel
sar
##diğini
ihtiya
kez
ince
çeş
müz
st
ask
##dana
başla
##lesi
kısa
gazet
tic
mas
hafta
allah
tanı
aşa
yanı
ac
##ünün
##ğin
##esini
ren
özellikle
telefon
##tif
sanat
temmuz
bilgi
birç
14
avrupa
13
kontr
yaşa
##tış
bilin
##landır
yaşan
##ilere
milli
siyas
##ere
yardımcı
##suz
tl
fır
herk
16
sez
terör
art
sey
##lüğü
hes
his
dak
##doğan
adam
##mişti
hüküm
tasar
paylaş
##dum
erk
yem
##ga
##oğun
af
ağır
birçok
toplantı
örg
toplum
##ort
##şıyor
##oğraf
konuştu
##sında
##larıyla
katıl
25
kontrol
men
bağlı
2018
film
##gin
prof
part
tr
etmek
konusunda
##lamak
okul
##akip
os
şimdi
##başk
üye
##vur
nun
polis
uğ
bayram
17
suç
##vi
##cağını
##del
uç
beş
##tiğ
##ılması
##cel
##tin
meh
##ıda
##gın
mek
proje
##ınır
##izi
sok
##bak
##bu
kolay
yatırım
etkin
ikinci
cumhurbaşk
##madan
##ince
onu
ke
bildir
##arası
kah
kaldır
isim
sektör
rek
içerisinde
kara
##ebil
rahat
iti
oto
aldı
dair
gelir
şah
merkezi
pek
altında
hemen
yani
and
cam
çeşit
##dın
kut
##siyon
mec
##mesini
erdoğan
pa
fot
belediyesi
başvur
##taş
herkes
med
##tım
sebe
00
##uluk
nedeniyle
oyn
##sil
##duğu
tale
##maları
poli
##su
##unca
##unuz
geri
üniversitesi
##tıl
cev
teknoloj
kurulu
##ceğ
##cağız
çalışan
fut
ait
kol
dar
iddi
##leriyle
saldır
dönüş
mı
##tiği
##asını
yal
##pan
##cret
ilişk
vak
##ıntı
satış
ayr
teknik
##ilmesi
##leyen
kıs
ilçe
##can
şehir
##ekk
ali
##umlu
sınır
##ize
##pe
ele
ücret
kapsamında
aş
yönelik
##lım
ulus
##min
inter
bana
##dak
##deş
pazar
sürdür
##nek
##tur
kitap
engel
geliştir
me
dem
nda
##ayet
##üc
bağı
zar
teda
yeniden
##müş
elek
mücadele
çıktı
bölge
boz
izmir
olsun
##iyordu
##ğa
la
erkek
inan
savaş
rus
sezon
##din
##lif
ala
verdi
##tem
##aj
gece
beraber
##ent
ingil
fin
çıkan
güvenlik
indir
oper
aile
##aba
grup
yaklaşık
yaka
##var
##oy
futbol
müş
faa
adı
gül
ilişkin
##og
##alt
##eceği
cumhuriyet
temiz
mehmet
pat
dö
kali
anlaş
öde
kork
otur
##res
osman
fakat
##meden
##tor
ortak
24
##undan
ıs
araştırma
söy
dah
##duğ
uzak
oran
##omo
eğer
ga
##sik
büyükşehir
##meli
bilim
##uyu
##cih
organ
serv
tarihi
##abı
##amp
##sım
##lır
hey
yorum
faaliyet
çağ
mahk
tav
tercih
lis
##kün
des
##asının
toplam
ceza
##mesine
elektr
koş
kamu
##ser
vardır
kuru
##hale
veren
fotoğraf
##masının
com
##yen
hayvan
100
##iyi
ça
##ke
takip
tük
aday
tekrar
yağ
kardeş
uluslar
##ime
ticaret
internet
##ilir
##meyi
sin
kür
yürü
birbir
ap
##üb
soru
yo
teh
yoğun
biraz
##sak
##lüğ
düny
itibar
ru
##yorum
##rat
ip
##ünden
mez
##may
##madı
yarış
teşekk
çif
##üsü
müm
##ener
50
alman
pu
ham
karşılaş
temel
huk
##ck
##imizin
değişik
##ân
##yanın
##tim
um
demir
oğ
şöyle
görüntü
##tiğini
hukuk
zamanda
müdürlüğü
##ebilir
##stan
##fen
rağ
teşekkür
##erj
##teş
giriş
ib
ana
##isini
olabilir
konusu
dile
##bo
uluslararası
otomo
silah
kent
işte
kesin
ayak
olup
##laması
ilet
cen
bes
##düğ
##ekli
boş
üzerinden
##sın
##larınız
##aş
sam
li
##vet
yurt
##´da
oluyor
temsil
##şam
aydın
gez
cin
##yar
model
görül
rağmen
##duk
yetk
##ğında
yapmak
buna
aşağı
##ari
net
sını
edi
ders
operasyon
ona
##spor
##ilerine
##talya
fran
meydana
düzenlenen
geniş
oyuncu
##lanması
gerçekleş
lig
##sen
vardı
müşter
enerj
ederek
mart
##sunuz
dakika
savun
beni
aras
mik
##ladığı
##eler
tabi
musta
yi
rap
kalk
elde
siv
##meleri
21
##sanız
ila
renk
sanay
mağ
##ilerini
aldığı
##imize
##ate
devr
gelecek
bab
le
gi
dol
##imizi
##istan
dör
çiz
yüksel
mümkün
şekl
##lemek
adım
##pit
yaban
##vek
##layacak
ner
##isyon
mustafa
amer
co
don
##isinin
##unuyor
##ınca
##inizi
anad
müs
tra
yıldır
diz
##menin
kaybet
imza
gereken
22
öyle
##meyen
edin
işlet
##mey
##mayan
##do
kuruluş
yarı
##nız
özg
sınıf
##şık
##bz
değiştir
dolar
size
kilo
fat
ettiği
firma
beklen
##üph
amacı
##izm
dolayı
ora
chp
yı
bize
yarat
herhan
idar
##cılık
fet
olmayan
kuş
çözüm
şüph
pers
kurt
##ğın
edecek
yalnız
asker
##eceğini
##pa
herhangi
##imde
hav
hale
bakım
anadolu
çift
boyunca
sürec
anda
##po
##ılmış
istem
##les
çeşitli
va
müda
giy
##tay
rapor
tran
üy
##diler
şamp
##bilecek
daki
tespit
##lendi
##bat
bal
##lardır
##fet
demok
dayan
oldukça
yazılı
sına
derece
lira
##dül
ülkemiz
##sınız
dağı
otomobil
yetiş
23
##yo
kalan
inşa
anlat
##elen
yemek
##niyet
kuz
##erli
traf
politik
gür
karış
nokta
tep
cih
adet
##muştur
şehit
sig
gök
##inci
##lül
sıcak
no
doğal
yanında
##´nin
üretim
ihra
gru
fay
bakanı
bakanlığı
altın
##sat
##lâ
emek
amaç
piyas
kayıt
çevr
açıklamada
cumhurbaşkanı
beyaz
ihtiyaç
dışında
milletvek
çocu
trans
num
##anlı
##mızı
nit
##lardı
geliyor
oku
sonucu
yapılacak
şampiyon
vide
isteyen
tu
may
basın
hatır
##atür
mot
çarp
yazı
bat
##ğınız
##ilmiş
kötü
suriye
nak
ilçesinde
unut
sahibi
##rah
halinde
örgüt
##dis
##ene
gider
müdürü
biç
fik
person
det
değildir
##lında
medya
yolu
tör
zarar
alınan
talep
##ela
özellik
2017
##dikleri
ölüm
yabancı
##sına
yapıyor
yöntem
ail
##matik
hızlı
##ılır
milyar
kre
sel
yapa
##dek
pan
ağu
ann
sarı
##mat
yaptık
gerekli
##isine
##ledi
kurban
##luluk
##ilerinin
##ğe
yık
saç
##yas
##umu
bulunduğu
ağust
web
şart
öğretmen
ruh
##manız
belirten
ata
mesaj
lid
yıllık
##mer
dünyanın
sabah
kişinin
##bek
##´de
öldür
##aten
hesap
fayda
##esinden
sonunda
öner
sem
list
emniyet
##gen
benzer
tüket
kira
hatta
kaf
sözleş
kuv
##eleri
sol
ahmet
##taj
##düğü
##diğimiz
düşünü
olsa
direk
ağustos
şeklinde
##set
parça
örnek
çan
##tiv
gar
almak
##kaç
go
ister
199
ortam
kullanıcı
uzman
ekonomik
##ücü
##bay
ten
##meler
tık
eser
tarım
akşam
##miyor
##sını
ilan
gerekir
40
ölç
verilen
vurgu
##mada
puan
ekipleri
##cut
##lanmış
belli
soy
gol
kasım
##lamaya
tay
##dız
bundan
##üf
nis
cevap
##lerce
##diğiniz
cid
şark
geçmiş
##layarak
##lin
adına
yapar
##mıyor
anne
##rik
sınav
##ydı
ödül
türlü
yapıldı
canlı
aslında
çevre
ağa
##tesi
götür
giz
güçlü
mevcut
##ısından
##ast
ra
hükümet
dört
durumda
##ırı
mutlu
yarar
##üman
banka
31
bursa
birkaç
yılı
##amız
malz
##abilirsiniz
mis
##cat
sizin
nor
deki
##20
büyü
hayır
##lanır
##dıkları
dal
yazar
##iliği
birliği
##eder
çin
toprak
hik
onlar
ris
##lığını
yeş
zaten
sırasında
##ras
hâ
ateş
aşk
##ko
##lilik
sürekli
sistemi
yıldız
##rek
##laştır
belki
sokak
##lış
girişim
güneş
##lanma
kas
rak
##med
tarihinde
ni
balık
katkı
hangi
##go
##ecektir
str
mahallesi
antalya
##onu
günde
resim
önceki
kapı
tartış
##ele
başarılı
kalite
min
##ite
etkinlik
nokt
hen
çer
##terek
iddia
br
demek
cihaz
##ısıyla
doktor
olmaya
##dük
karak
sh
kuvvet
acı
davran
##masında
28
araya
elektrik
27
rusya
##esel
deney
##üncü
işaret
sanayi
26
bilgis
pr
yu
dost
##fi
ingiliz
zorunda
##iran
detay
çoğ
insanlar
yargı
verdiği
güney
##gar
konuda
iletişim
soğ
akıl
bunlar
denet
başvuru
atatür
2016
kullandı
kararı
sp
müh
sayesinde
altına
##ああ
mur
doğr
resmi
etme
not
sonrası
teslim
aktar
##ilerek
##dal
aj
alış
##osu
##luğ
kuzey
gec
yuk
gazi
sebep
tesis
pen
orman
atatürk
alıyor
dahil
ant
##altı
izin
##ıyla
nedenle
başbak
komut
durumu
süreç
yaşayan
gem
hastalık
ocak
otel
bank
##lanıyor
meclis
çalışıyor
yana
gerekiyor
kredi
zen
özgür
mark
yerde
kab
bilgisay
##luğu
arasındaki
##ucu
##âr
açısından
kendini
islam
hayatını
fener
yat
jan
##tiğimiz
##lığın
istiyor
##inc
yum
##diklerini
##ion
##deniz
eylül
kamer
##aliz
siyasi
doğu
ordu
tutuk
##üğ
fer
güncel
süp
verildi
yaşındaki
bağım
ettik
sab
tasarım
##yum
##işleri
##´ın
ayında
itibaren
aracı
yerel
amacıyla
yere
izle
##ov
açı
kaldı
##par
teklif
sırada
##labilir
bilgiler
baba
##of
başlayan
sene
video
##fak
yardımcısı
##yız
belirterek
duyur
##viz
temsilc
##şe
ünlü
osmanlı
çalışmaları
ark
kullanı
enerji
##neği
yeşil
##ğına
şi
boğ
##lerdir
yaşanan
öğrenciler
yun
yandan
stan
kir
haziran
gerçekten
##teg
##esiyle
servis
dönemde
kayde
gay
##lığına
müzik
pey
fes
##liğini
turizm
sefer
bi
tama
bahç
kimse
atı
kendisine
##labil
##manı
koca
deste
##ülen
##ina
ileri
ciddi
olmaz
##evi
##lıkla
saldırı
üyesi
yasa
park
nef
vali
nisan
mobil
önünde
fu
##larım
onların
laz
##lığa
##büs
başına
hoş
barış
tamamen
günlük
açılı
dolayısıyla
35
##atif
bilgisayar
mus
##imin
##asyonu
sayısı
çi
##memiş
##larımızın
bura
yanlış
şid
adlı
##lanacak
artır
alındı
iran
iler
transfer
huz
##one
us
ediyorum
üz
trafik
diyor
##leti
29
vaz
çat
##av
nes
tehlik
##ton
##üst
olabil
kadro
sayılı
müsl
lo
aralık
haline
##liye
sayıda
##ni
insanların
##to
katılım
##mesinin
meslek
##lulu
##diğim
tedav
bizi
tedavi
fenerbah
##hal
##eyin
##teki
bayan
##enek
##hbet
sul
key
##nun
huzur
##madığı
fakül
##form
tanım
kaydet
katıldı
milletvekili
alanda
kemal
##medi
yansı
##ullah
##ladık
##ıldığı
tip
malzeme
##irken
hır
göç
beşik
gerektiğini
pak
defa
zey
oluşan
pla
kanun
belirtti
##mayacak
ker
sohbet
nerede
sayı
##ebilirsiniz
ekim
kapat
yüzden
çö
mor
depr
pas
##latasar
yaptır
pet
bunların
sıkıntı
sayfa
oyna
eur
ihracat
##üle
kılı
##sine
orada
000
##co
kullanım
hisse
##ansı
alır
kurtar
##latasaray
cep
böylece
süper
##çev
##deli
mahkem
istik
personel
tas
üniversite
artış
galatasaray
ekran
keli
henüz
sü
başta
fi
dek
onları
samsun
merak
##imli
yukarı
bulunuyor
gözalt
mon
arada
mahalle
##ale
olmadığını
bağlantı
konut
keş
müslüman
başında
çevir
bekliyor
alacak
kem
soruştur
##ğine
vermek
##ant
##bzon
##anıyor
olacaktır
kulüb
kanal
mayıs
kullanılan
##gaz
beşiktaş
satın
##uldu
kampan
derin
##cılar
motor
##dam
##´nın
birinci
##etin
##muştu
yoktur
gören
düzey
##oloji
isten
sonrasında
almanya
örgü
hap
trabzon
uğra
##lenmesi
##zu
##siye
45
##dr
batı
çerçev
jandar
##sızlık
tatil
##ğinde
marka
500
kart
##ger
şik
##tep
danış
yavaş
işç
müdahale
mekan
wh
diş
##ia
##etler
eksik
##lıklı
##ef
memnun
kaza
fenerbahçe
sayıs
eylem
##malar
sorum
esk
##iydi
düşük
tören
ilaç
##ilecek
cad
##malıdır
sonuc
##ly
perfor
tec
kadınlar
##olojik
##larımızı
##emez
gözaltına
yangın
adres
zengin
ışık
çocuğ
namaz
yapacak
içeri
başkanlığı
##ümü
##ırken
çay
belg
##kk
##iliyor
beri
tıp
aya
##eceğiz
alma
##lığında
lider
yerleş
programı
performan
anlay
##lamaz
rol
2015
ef
davet
##str
halde
normal
##lediği
##eniz
gazetec
##asıyla
seviy
dünyada
güm
##tepe
##tere
lim
istih
yeri
günümüz
##yıl
##ulan
##ama
aylık
##tığını
kup
esas
ilgi
fon
##meliy
kıb
##yip
##tiler
##mar
askeri
faiz
olmadığı
##cağım
##ileş
görüyor
demokras
savunma
##ceği
istiyorum
prot
birleş
yerinde
ir
şiddet
eğlen
60
##sini
zam
düşünce
şehr
içine
borç
hayata
##ich
ton
ce
memur
sayın
prob
bebek
##rıs
altı
##best
gönül
##od
##edeki
başbakan
uçak
##desi
bol
sevk
##veriş
emin
tor
##eyle
198
##´in
arac
day
##liğinde
yönetic
koşul
kişiler
yapma
dava
sağlıklı
kok
dis
ikti
##tıyor
##unları
belge
profes
##bur
##ana
##landığı
alanında
yetkil
arama
##âh
##lenme
hol
##iyeti
öğrenci
ic
yayım
##ilendir
##inç
olmalı
çal
sevg
teknoloji
##inize
hayal
gide
##eği
meş
imk
öğretim
derneği
varsa
serbest
darbe
dışı
nüf
dolu
plat
teb
yılmaz
kims
sunu
##zi
##isel
çalışmalar
##sk
ces
jandarma
##abet
##zı
site
yılın
değişiklik
aka
##gam
başar
tok
birey
tarif
kayb
risk
erz
heyec
hed
beğ
##liler
kendisini
murat
hazırlık
etik
kullanıl
##masından
##amet
eg
gıda
##anlığı
geçtiğimiz
nur
mühen
eleştir
evet
etkili
sivil
buluş
hüs
şeyi
şeyler
##çak
sizi
##cer
##rail
hafif
kons
olmuş
ediyoruz
yapılması
ifadelerini
fırsat
##ğunu
##kale
boyut
rece
değerli
karşısında
##çuk
##geç
##sef
siy
##gör
poz
jo
con
kahr
etmiş
##lasyon
pkk
fiz
problem
işi
yönetimi
##ump
karş
duygu
##kenin
onay
##tion
kıbrıs
##are
##cık
##lip
##sur
##liğin
sultan
inceleme
dışarı
projesi
şiir
##taki
##son
ulusal
lazım
imam
van
adana
salon
he
##cilik
sitesi
kural
##lisi
test
kong
##lev
saha
def
kurtul
kamp
üçüncü
##sının
sorumlu
onlara
miktar
##ceğiz
çocuklar
göl
kış
işletme
sona
çıkış
meydan
##larca
senin
tw
##lal
edilmesi
ücretsiz
yaralı
cil
çağrı
##sü
sil
alanı
başlat
hasan
anlayış
2014
##esindeki
hab
amerika
döneminde
##aka
kahraman
uc
##ess
komisyon
fatih
##baş
##ku
##ülü
inşaat
ez
##abilecek
##liğe
##etik
önüne
şube
deprem
##allah
giden
öne
kaydetti
tez
##dit
##laka
siyaset
mim
ırak
##artesi
yanıt
işbir
mıs
##oz
recep
##asından
##alım
##osya
ağrı
parç
dağ
mat
##ilebilir
##ündeki
##ımıza
düğ
bı
##ımızın
##ult
kısm
erken
form
toplu
naz
bitir
##ildiği
kendisi
ingiltere
koruma
yürüt
konuşma
##50
fab
alarak
bunları
grubu
israil
##tarı
kılıç
psik
politika
##lerimizi
getiren
metre
bölümü
açıkladı
geçti
alışveriş
##onik
##rol
tv
başlan
futbolcu
kıl
kateg
kategor
hizmeti
cami
##başı
moder
yola
çelik
sayf
duvar
imkan
bö
##dıktan
enf
##laşı
##diş
yıldırım
kırmızı
yetiştir
sert
##umsuz
##ınar
geldiği
fikir
beden
örne
##mit
reklam
ülkenin
yağı
##lığının
##ratik
araştır
süt
olun
durumunda
hür
tır
##ceğini
benz
düzenlen
##anan
inş
gösteren
yeterli
taz
##ıyorum
türkçe
##rem
##hane
gur
gündem
fetö
güc
mutlaka
##atör
şa
uyarı
yaparak
##ital
odası
kapalı
op
azal
saygı
ödeme
##dıklarını
red
taşın
##üler
##lanarak
tahmin
yoksa
ayır
##sinin
##gisi
##ulması
organiz
bina
etmeye
hizmetleri
satı
##urum
kala
##cusu
yerleştir
yüzyıl
merh
##tey
##line
##düm
##lıklar
##meni
söyleyen
bayramı
çiçek
korun
yas
belirlen
atan
kıy
şarkı
##ünüz
strate
##ts
peygam
bür
##her
##rika
##undaki
doldur
bazen
uyar
örgütü
ayı
doğum
yav
tabii
port
stand
aray
##limiz
anay
val
amerik
isimli
##larımıza
70
bölgede
giren
##sas
görüşme
##siy
##hp
öncesi
##duğunu
mük
adalet
##imleri
ağaç
yılda
siyah
yah
dök
##haf
ettir
görmek
esna
efen
##dağ
sap
cuma
new
sonraki
adayı
evde
far
08
sine
##seri
sağlamak
kaya
stratej
muham
za
##demir
yaşadığı
##ust
ilçesi
şen
çeken
akp
yunan
hastanesi
yolc
##meniz
##orta
mühendis
kaliteli
hd
düşür
##sim
##amı
gazete
kızı
kendine
kayna
verir
fakültesi
insanın
##isa
##ova
##gal
##ğinin
direktör
feder
bankası
##yse
modern
terörist
şikayet
hala
##liğine
veriyor
peygamber
kaymak
01
hediye
konya
ex
itir
numara
mit
olumsuz
yolcu
işleri
80
eb
çap
platform
beğen
şubat
önümüz
fizik
##anlık
##lana
asla
eve
hisset
##rahim
ler
öte
##mür
eğitimi
anayas
##mm
tayyip
haberler
olmadan
kalp
çoğu
öden
##arında
##istik
dakik
reh
##laşma
##layıp
##iri
trump
##iyatı
##ong
tecr
36
##elt
işe
yaşında
yalnızca
karakter
olursa
oranı
32
şunları
lik
doğan
##iklet
cem
içi
sana
hac
05
sürede
##nu
akadem
esnaf
tuz
##layın
tali
##melidir
şiş
zira
hüc
##ğan
##ps
ürünleri
90
##ılma
sürücü
hesab
olduğuna
##mur
sava
euro
##masıyla
gr
##ılmaz
gali
##ışma
##elim
lisans
malat
eşya
takımı
günlerde
##dat
şar
haft
arap
##yal
yaralandı
saf
davranış
##onya
tavsiye
arab
##leriniz
gelin
##yet
bet
##th
roman
##sizlik
##yap
ıı
##ekim
hakkı
yaşlı
##ilmiştir
kum
##işehir
kalı
düştü
##tıra
ortalama
hikay
##ire
acil
##his
##mesiyle
##vizyon
##larındaki
konum
eşi
##ation
##lüyor
mesle
yeter
rad
gelenek
##ersin
vatandaşlar
çıkarı
eşit
yapmış
etkil
piş
##book
tanrı
getirdi
bulunmaktadır
yıllarda
##lamış
##bin
fransa
##ayla
otomatik
olmadı
peş
açılış
##tern
##lemeye
takdir
07
civ
gençlik
##emi
ayar
köpr
sağlayan
kilomet
gerçekleştirilen
bilgiye
34
sonucunda
##türk
diyerek
##liyle
del
baskı
##´a
yapım
hin
edilir
diyar
kulüp
##muyor
197
sö
olmuştur
kesim
##eceğiniz
avuk
mül
analiz
##ücu
##diğinde
sim
fiyatları
yerli
vek
##resi
##esiz
##yonel
yürüy
geçiş
asıl
##amak
oyunu
##iber
ettiğini
uğur
vergi
06
nedir
##ard
piyasa
bon
yapılır
arası
##umak
diren
##ıza
tiyat
katılan
##antep
bağımsız
yarın
partisi
haberleri
tel
##düğünü
lar
33
tun
09
vazgeç
pop
##arken
2013
##ınızı
##¦¦
televizyon
hus
if
yapmaya
aks
kişisel
##ud
ibrahim
##mayın
edeb
kitab
profesyonel
##tt
otobüs
##tıldı
kazandır
gaziantep
sizlere
çor
akıllı
söyley
##emin
anlamda
çak
belirtildi
diyen
seni
ref
bom
hakim
vücu
hüseyin
##aza
herkesin
##anlar
##ham
örneğin
##lakalı
çocukların
istiyoruz
##ciler
ömer
ted
sip
buraya
##hi
kamera
##latı
izley
alıp
itfa
iha
bakış
tiyatro
gitti
lüt
##lerimizin
##yım
esc
tatlı
##ğimiz
düzenleme
##üldü
birden
kavram
araba
cer
##udi
birisi
##cının
umut
inşallah
kürt
ölü
okun
bugüne
##erken
##memiz
standart
kayded
bahis
durdur
duruş
edip
kesinlikle
kop
##mesinde
genellikle
soğuk
etraf
sebeb
##çiler
fen
yasak
##say
kök
sta
##ever
odak
kendilerine
nüfus
mhp
##land
zorun
##urken
soruşturma
dep
kaçak
olumlu
binlerce
mahkeme
400
yeme
taşıma
escort
ameliy
sakin
yönetme
peki
içerik
yü
##dip
##lerdi
rakam
##dikten
köp
iktidar
paşa
üyeleri
tren
ihti
bölgesi
##car
##ahat
biçimde
güvenli
seviye
yang
aşırı
##mail
zih
konser
##ınıza
neler
tehdit
##iyer
##bakır
değerlendirme
##mara
car
##ura
##des
biliyor
antren
öncelikle
alım
##lenmiş
##ağı
face
##rom
bün
bec
##ğının
endek
başlangı
sigorta
sorunu
bask
gizli
süley
düşman
dij
bilgileri
##lardaki
çıkıyor
##ılıyor
##arım
##ner
oğlu
##ınma
##qu
ticari
buy
üretic
##zet
hepsi
##ındır
kişilik
tepki
üstün
##riyet
elbet
diyarbakır
istedi
yaşıyor
şeker
ligi
şaş
eğlence
ndan
girdi
##maş
seçenek
##nam
farkında
##daşı
ade
uyan
birim
##ise
fel
##ogle
kapas
##süz
kocaeli
müdürlüğ
##iği
makin
paket
tane
gücü
##tifak
basit
##fat
firmaları
düşünüyor
sanki
##larınızı
ide
kale
mısır
süren
bilinen
süleyman
ölçü
##lav
etmesi
dünyaya
##lıkları
taraftar
denetim
serg
şahin
##lığıyla
##ruk
sk
hz
uyuştur
##seniz
##tığımız
saray
##ああああ
selçuk
##ata
usta
önümüzdeki
mini
zev
kadının
196
dijital
misaf
##masın
çaba
rest
##sem
cinsel
koor
giderek
02
##köy
alk
bilir
ima
cenaz
seyir
suyu
##he
##lerim
##10
##anet
yaygın
olmasını
almış
google
ism
##üstü
##fı
2012
çanak
müşteri
konuşan
hata
##ht
sanatçı
edilmiş
##mel
kör
##har
makine
ittifak
##no
##ımızı
ülkede
##´nde
metin
##ilip
ır
sivas
hali
önlem
olmasına
tit
üzerindeki
sporcu
##isiyle
ortadan
ihtiyac
bölgesinde
##usunu
nden
grub
itfaiye
çalışması
lez
kahv
erzurum
muhammed
alb
olası
##ment
##ator
##ij
bis
lir
##lanmıştır
kanı
demokrasi
gu
toplumsal
##ith
kâ
##list
mersin
kullanarak
##maktan
zayı
neredeyse
zeytin
onur
verecek
38
cumhuriyeti
##ding
üs
ilişkiler
##kur
boğaz
##bal
daire
was
##ımda
zayıf
##layıcı
tarz
tedbir
##ond
##memek
büny
attı
rahatsız
uyuşturucu
ediliyor
##paşa
işçi
heyecan
maçı
jap
##düz
300
maden
ingilizce
yoktu
koc
dışişleri
##day
silahlı
altyap
kilometre
dokun
duyg
##eci
##iner
mimar
kriz
ısı
şer
misafir
kulübü
kadınların
##arya
yalan
facebook
mezar
##ersiz
##yüz
nitelik
zir
çerçevesinde
turist
doğrult
##uyordu
##landa
##liğinin
kurulan
edebil
##ıyoruz
bulut
rü
##arlı
taşıyan
yatak
##imizde
dam
03
##bey
çab
kullandığı
##ade
hızla
##leyerek
ederim
##uç
rüz
##cağına
por
hürriyet
fransız
final
##iyorlar
dosya
37
avan
koru
küresel
##lili
adını
akdeniz
nün
söylüyor
süreci
kayıp
##lerinizi
kayseri
##dun
##ze
##lerindeki
dahi
seyahat
sözleşme
keyif
##tacak
blo
boya
mün
ekibi
yerini
hastane
kazandı
sorumluluk
çoğun
şans
pe
mir
doğrudan
lin
##ýn
rab
çeki
petrol
dua
fo
hazırlanan
avukat
ur
##maması
birik
##ros
çekti
öy
vit
eskişehir
##isiz
yağmur
##ple
##ıma
söylen
55
hapis
##yi
anlatan
gelmiş
vakit
taban
elbette
makam
dip
kapan
babası
şahıs
şüpheli
depo
etmektedir
unsur
işin
##ry
desteği
restor
gelişme
karşılık
öngör
ec
kaçır
sorgu
olacağını
kişilerin
aktif
yazılım
online
sağlar
arttır
dosy
##dil
##emen
maz
temin
koç
rez
meyve
##kaya
ayrıntı
##ğından
kurumu
saatlerinde
##ırım
##lacağı
zek
48
hoca
istihdam
belirtilen
rast
yapabil
kısmı
##zan
nedeni
##mediği
dakikada
39
##meyecek
sonuna
##23
##yaspor
yaptıkları
##ğıt
##iyan
##üyle
klas
kurs
elektronik
fiyatı
##yası
##ff
öt
##enler
çekil
2020
sipar
ucuz
##mamış
ihale
yit
halkın
iyileş
teşki
malatya
değildi
ca
ondan
##ho
kaybetti
başlar
buradan
ins
##acağız
tanış
ekonomi
##cil
krit
twit
tablo
##lerimize
hanım
alına
##dy
ajansı
aralarında
kulak
mesaf
##şet
hayatı
başlıyor
arz
maliyet
öğrenildi
##vik
with
haberi
düşen
düşünüyorum
kral
##lerek
açılan
yed
hakları
##memesi
gerekmektedir
emir
##yer
hoc
çanakkale
olduğumuz
##ilerden
tanıtım
yasal
vatandaşların
insanları
deneyim
mens
kendilerini
etkisi
doğrultusunda
konfer
bebe
ayk
##nan
işler
##ağa
##öğ
##distan
pren
genelinde
2011
isti
olduklarını
mali
##tuk
tü
organizasyon
konuk
yürütü
performans
kıyı
pil
##biliriz
avantaj
karab
##ons
savaşı
içindeki
bodr
coğraf
gelişim
sahne
aa
yıllar
##ılmıştır
bağış
44
buz
uzat
##kar
hit
yada
oldukları
anlattı
muhab
ederken
65
danışman
dönemi
sağlayacak
rum
yenil
şanlı
bununla
sağlığı
by
sonuçları
cüm
değişim
köpek
denizli
aşağıdaki
bilgilendir
süresi
vüc
şük
sahil
bayrak
dizi
##leye
şef
tı
yürüyüş
suy
bodrum
selam
bahse
ürünler
wor
şaşır
ismail
mezun
eli
doğa
temizlik
sahn
75
ramaz
kanser
##limanı
die
devletin
çey
kampanya
##tuğ
olağan
qu
gurur
kus
geçerli
koordin
istek
##ıf
sunuyor
mür
##embe
gerektir
##cisi
mükem
twitter
##ilebil
kültürel
bilinç
ispan
vi
##wn
cezası
geçici
04
turk
sipariş
almaya
geril
yüzünden
##hn
##ds
cilt
est
yör
yitir
lu
kişiye
##ıyordu
gelip
ış
sön
##barı
havalimanı
dedim
önceden
##cısı
sch
harca
itiraz
yükse
lütfen
usul
işbirliği
teşvik
##espor
yanına
ülkemizde
sağlaya
gösterdi
yur
##maye
amerikan
gördü
bitk
günün
kalın
eh
ege
ww
kitabı
harit
finan
vücut
##cağınız
vermiş
merhaba
kamuoy
uçuş
##ısını
stat
ilgilen
manisa
##ıldığını
ep
dernek
ihtiyacı
belirli
veri
rej
konak
42
gümüş
ob
dönüştür
pozisyon
that
##´e
##´ye
öğrencilerin
bildirdi
mensup
toplantısı
kod
yapımı
##usuna
okuma
##lata
inci
akın
geleneksel
hukuki
##laşıyor
ameliyat
kimlik
##ğinden
lok
##nik
##uluyor
ramazan
nefes
##acağı
karadeniz
##stin
hayırlı
##ws
##ron
beklent
##yol
bahçe
bedel
algı
herkese
##inal
41
##rim
yapılmış
##tival
kapasit
varlık
birinin
hassas
geleceğ
görülen
hu
##inizin
ira
okuy
tb
##lete
##tıkları
edebiyat
##ity
yaparken
wil
başlayacak
ismi
anı
festival
düşünc
işlemleri
etkilen
we
günümüzde
yağış
idi
##gesi
birer
komş
##lâm
zevk
düzenli
evren
görevi
köyü
abdullah
##dığımız
takv
yiye
vo
##vel
win
anlamına
sağlam
özelliği
çalışmalarını
finans
vermeye
##uyla
##luluğu
paylaşım
göğ
43
esn
çam
hor
##yordu
##dığım
47
terk
ters
ulaşım
özen
##ks
rektör
indirim
##bze
##öğret
şub
##oto
çıkacak
fili
2010
gördüğ
kullanımı
ışı
eriş
mükemmel
dönüşüm
altern
emre
memlek
karşıya
##isyen
uygulaması
basket
içeren
nih
##miyorum
gördük
biy
au
harika
edeceğiz
görünü
www
bende
havuz
elb
bilimsel
özellikleri
##mesinden
##emizde
ekib
trabzonspor
##lerdeki
##gat
##ımızda
gayret
maddi
tutar
verme
sürüc
mavi
servisi
##so
açtı
##ğim
istediği
ayakk
yedi
alev
sözc
tepk
lev
nı
dey
yönlendir
derec
akl
çocukları
elinde
cas
##rin
caddesi
##ulur
##isinden
uygulan
şirketi
dolaş
hakan
asya
kırık
km
muhtar
sahiptir
##doğu
devleti
sürüyor
milletvekil
hücre
uğraş
##tılan
değin
##ary
zafer
sevgi
adeta
üstüne
prens
enflasyon
bizler
##lerken
olanlar
##lup
##stik
##rag
gerçe
##parator
##ıştır
tev
##nak
kurumsal
ani
kimi
##fe
sün
##usuf
sekret
karay
sahib
##dılar
kamyon
itibariyle
çav
değeri
##edim
##sever
döndü
gerekç
büyüm
##gah
kli
noktada
##ulmuş
alternatif
istediğiniz
filmi
gözlem
##gs
sinir
anayasa
şif
güzellik
alınması
imparator
sermaye
##´un
yusuf
süs
renkli
tarihleri
adli
bl
filistin
parçası
46
geldiğini
yaşat
devrim
##ğla
kaynağı
yolda
##lamanın
kast
yaşar
olanak
maaş
kıya
güçlendir
buldu
##landığını
##ebilecek
çocuğun
bence
tartışma
biçim
dilek
##leyici
sağlıyor
anti
##slan
niyet
tanın
##lımı
edildiği
53
dikkate
##tanın
gazetesi
##we
##kul
almaktadır
anah
iptal
protok
##okul
yarım
edilecek
topra
mutfak
dini
##tiva
##yu
anlaşı
##lıdır
##ilerle
mağdur
eme
gündeme
vah
nev
emekli
sigara
##biyet
amac
##ray
##hat
korku
kalma
atıl
##ikat
plakalı
italya
detaylı
kanunu
altını
##leşme
karıştır
##tah
##21
halkı
şanlıur
olduğundan
becer
ilginç
sinema
endü
sistemleri
cumartesi
viz
darb
muhaf
sabit
##esir
atık
üretimi
##sıyla
incel
zorunlu
maçında
görme
donan
##işi
festiva
yararlan
##daroğlu
meclisi
##ülebilir
##okulu
##vı
##ete
rahmet
hdp
bildirildi
slo
güvenliği
nesil
##hisar
nik
bekle
##kır
##ore
posta
anlama
sebebiyle
##stit
demokratik
kalem
suret
organize
sus
##oli
belirlenen
islâm
önemlidir
yürür
##eyecek
gösteriyor
mic
sıf
bıçak
##anda
nö
görsel
dalga
kelime
##gü
##caktır
açıklaması
kısım
kazanan
##ğiyle
doç
##cılığı
protokol
başlangıç
cumhurbaşkanlığı
kalit
tarihli
araz
olacağı
vol
##ste
hemş
sevgil
mutluluk
engelli
yaratı
oranında
anlaşma
kimsenin
hekim
##eksiyon
##ildiğini
göçmen
##hone
##emeyen
49
turnu
bozuk
ney
##çisi
ayrıl
işlemi
eklen
gençler
dük
kaynakları
düğün
zamanlarda
##tedir
kana
rakip
öncesinde
yumur
54
yakalandı
yerden
yolunda
##uyorum
bunlardan
##ıklı
##´den
parmak
icra
taleb
evi
kaymakam
##lor
##uyoruz
##eceğim
mese
imkân
aziz
artı
birbirine
yenilen
##rama
oyunları
##göl
oysa
bulundur
##öğretim
gerçekleşen
fuar
##´nda
##beden
merkezinde
bilgisi
##mekten
editör
balıkesir
tim
iken
hakem
##araj
göm
potan
yunanistan
sıkı
sik
masa
##sinde
moda
lab
etiketler
##´dan
##bı
uyum
##ât
valisi
##ase
çalıştı
açıldı
vic
köşe
51
metrek
birini
sessiz
mahkemesi
sanık
bakımından
bilet
çavuş
kavuş
gidip
yaşamak
##ted
kılıçdaroğlu
amir
bez
fe
yayınlanan
idari
karanlık
56
kafa
yakından
işgal
nec
ajans
insanı
üstünde
iyice
ran
harekete
##lılar
birbirinden
##mıza
sakarya
rö
##30
edinilen
##erseniz
vakfı
yenilik
diler
çı
okulu
sevin
bekleniyor
civarında
tecrüb
kütü
forma
halı
şeri
boyu
alabil
52
şimd
modelleri
önde
##makla
lit
neh
şüphel
yumuş
150
başsa
##ülmesi
imkanı
çetin
je
başı
başlama
##inizde
tap
ülkemizin
edilmiştir
ürünü
yaptığımız
cumhurbaşkan
##raz
lezzet
şeyin
şanlıurfa
demektir
bazıları
ekipler
saniye
hizmetler
sorunları
rekabet
##lıkta
ela
müdaha
kalır
bağır
sizler
##bulan
sebebi
##ell
##gül
ikram
mikro
##red
hâlâ
müşteriler
##nin
ağz
diplo
##ısına
cinayet
aykırı
birleştir
düşüş
##lemesi
tbmm
set
kiralama
içişleri
köş
çök
fabrik
evden
müsab
hastaneye
amaçlı
2009
##ülmüş
deng
##rük
##ibe
belgesi
uzmanı
akış
gidiyor
##asındaki
türkiye´nin
lise
lideri
uça
ambulan
##illa
##ub
inc
yetkili
yoluyla
bahset
vir
bölgeye
yapacağı
yılından
##ä±
adamı
##müyor
öğle
kıymet
güvenilir
kere
vurgulayan
nam
##ımın
57
izlen
cm
##und
yönünde
yumurta
las
kuy
pi
lı
halka
##olog
sever
kızıl
58
vakıf
##pat
##ograf
##madığını
toplumun
ufak
nat
fın
çocuğu
düzelt
ziya
##uman
orhan
afrika
##pt
zamanı
bahçeli
##emeye
##çın
ja
halen
düzenlendi
annesi
hindistan
##teşem
şehrin
##yoruz
refer
##ülük
##liliği
lond
hadi
vb
##amik
kaybol
kararlı
türü
vererek
##cunun
2008
ulaştı
##emiş
##bb
##leyi
muhteşem
yapıldığı
gitmek
kıyafet
klasik
görür
protest
##sından
##uyucu
evinde
htt
cerrah
olmuştu
hasar
##sul
basketbol
planı
##irler
##iyim
maddesi
mesela
##eyim
##utu
rüya
niteli
kaybeden
süreçte
##ilerinden
ailesi
beyin
xx
tasarru
mahm
##ft
kalb
raporu
birinc
##cıların
finansal
kullanan
##ceğim
açıdan
yıllardır
felsef
ekmek
nu
##lerince
lisesi
maçta
##tc
bünyesinde
##yiz
##leyecek
ag
motos
sahte
büyükel
arkadaşı
yedek
ettim
olmayı
kra
tutan
gelişmeler
aşı
##ınızda
##zat
mekt
geçer
pazartesi
insanlara
##´ya
benzeri
lük
dür
ayakkabı
albay
##sit
katıldığı
metal
kaldırıldı
incelen
yurtdı
##ılmasına
borsa
acaba
nakliy
##ty
temsilcisi
elim
apple
##ino
ölçüde
aracın
gelerek
##ılmasını
verilmesi
##ükle
kenar
gib
şık
albüm
modeli
müte
zinc
##atu
bm
beyan
aley
##bank
##kon
tasarruf
hissed
hayran
enstit
ri
fık
##meyin
zirv
##sap
##ilerde
okur
evlen
ndeki
##yken
artan
##leyin
meden
gram
muhale
##emek
mobilya
kağıt
sız
##fik
uzay
yapabilir
ph
kazada
tasarımı
alkol
idare
arkadaşlar
hatt
pap
takdirde
mektup
baktı
çuk
pam
gereği
soylu
andro
döviz
##lus
tank
##layabil
arzu
hi
gere
kanıt
milliyet
inanç
##lığından
sec
sertif
telefonu
kütüp
yapılıyor
ilişki
##tek
döv
muğla
kupası
194
##lih
duruma
ettiler
##larken
##cın
##âm
festivali
devamı
##eral
sesi
tebrik
büyüme
mate
##anıyorum
üstelik
zehir
muhat
atöl
play
##alesef
##enn
korumak
aktiv
evlilik
maalesef
kırk
##tıklarını
kendimi
müst
radyo
64
##tak
sir
ul
##bon
husus
yapıyoruz
dekor
##int
##enti
##dukları
##ydi
yavuz
kore
niş
sözleri
düzenlediği
evin
günden
##giz
çalışmalarına
##vanın
heyet
##efa
##oper
bahar
##19
yiyecek
mesleki
##leyip
##şey
muhtem
##lenin
##mıştım
eğil
duran
salonu
ibn
zorlu
59
##usal
##lî
sırt
güne
gittik
ümit
yayınları
verg
koltuk
##iyel
gümrük
rekor
##likleri
kartı
##ick
ilişkili
yerlerde
federasyonu
alınarak
lan
kullanmak
onunla
##labilecek
özgürlük
kongre
getirmek
kilis
çatı
yaklaşım
adamın
gündüz
##sıt
bakanlık
##lıca
kalmış
coşk
kariyer
yüce
popüler
##duğumuz
egemen
olayı
tedavisi
bisiklet
yolculu
kaydeden
gerektiği
başladık
etmiştir
uyku
##´ta
toplantıda
hatırla
süredir
##ori
diyet
hacı
öf
salı
eya
john
komisyonu
besin
rüzgar
##übe
aracılığıyla
parla
haklı
##lacağını
##ısında
bireysel
##sy
kaçın
kendisinin
çöp
paris
##sızın
hatırlat
aşağıda
yata
mağaza
ven
sevgili
altyapı
android
##örü
bilen
faktör
fiziksel
istis
##laj
##rist
##çu
geliştirme
##azı
çalıştır
çarşam
##ji
##soy
sözü
##ülüyor
##balık
genelde
imar
##disi
görevl
ortamda
alanları
##11
ilave
tehlikeli
kaş
rehber
##ırlar
##gazi
##don
konus
##lari
ofis
kalkınma
##tülü
manz
##erv
fabrika
hil
geride
##ilmektedir
ves
pişir
org
çıkardı
motosiklet
iklim
yapısı
tüf
gözet
##lent
99
mevzu
dili
bomba
ayda
çıktığı
##ris
oynan
çukur
yel
yaşamını
tipi
denk
nem
kilit
##mamız
baraj
##yacak
verim
cins
çarşamba
##diven
yetenek
yakış
üm
kişiyi
öncelik
##24
bölümünde
aslan
garan
görünüm
toz
hatay
bütç
##ahh
çıkmış
öğrencileri
bütçe
deri
antrenman
kutlu
buyur
##mos
##rid
antik
aldım
bulunur
dans
##onun
##ıldığında
kıv
toplantısında
kahvaltı
kutsal
muhalefet
başak
##veren
pol
uk
bulunduğunu
##mamak
görmüş
edir
2000
yuvar
marmara
içinden
etki
perş
had
muk
endeksi
mesele
195
taşım
sonuçlar
mac
sıfır
ihbar
yürütülen
hain
kabil
gerçekleşti
cadde
aklı
##satı
başlattı
##otik
madal
günler
köprü
##alan
hollanda
vis
beslenme
evine
anahtar
iade
som
##kel
##anız
kanunun
sektöründe
ale
##diğine
kanat
galibiyet
ağız
sorunun
cema
edebilir
##ksiyon
yılının
ilçesine
bağımlı
##kim
yolculuk
iba
katılımı
yönetmen
gördüğü
yolları
protesto
##diniz
##mo
##abiliyor
yarışma
yüküm
##cin
roma
mevsim
sağlan
babam
seks
seri
inti
yaptığını
disip
vücud
##paz
taraftan
şirketin
erkekler
##itesi
sof
zorluk
tüketic
##liz
perşembe
derg
##ese
itha
##tic
yüzey
gerçekleştirildi
kullanılır
tablet
çalışıyoruz
gerektiğ
yüzü
adlandır
##pg
direktörü
olduğunuz
ceb
##ug
sunan
nez
verimli
maruz
kaps
alet
tamamladı
##lacaktır
##yasal
##amin
alışk
şunu
plastik
kuvvetleri
istifa
zamanlar
bıraktı
##sey
göreve
iphone
gelişmiş
##pınar
milletin
getirildi
yüzlerce
özet
yazık
yükselt
bülent
york
netic
pamuk
sc
##ısının
##lüğe
sakat
vade
otop
cümle
arkasında
fonksiyon
##emesi
##jen
parlak
nöbet
bilgilere
uefa
cezaev
##80
##tımı
beklenen
##şi
post
bulmak
##ayacak
hastalığı
yıla
##ona
metro
bunlara
kuran
##tra
noktasında
sanırım
bulama
##veç
konseyi
alem
azalt
özgü
esnasında
##akistan
açıklamalarda
halil
çocuklara
dolarlık
komşu
##amıyor
itibarı
toh
##elle
85
konuyla
##yalı
kalıyor
rabb
konferans
##12
zamanında
anlar
##´nun
görüyoruz
alması
pir
satışa
deplas
damar
aldık
gelmesi
buradaki
kargo
abdül
gördüm
kahve
##malarını
##bas
komutanı
trak
nakliyat
arş
istat
sürpr
sonsuz
##ysa
##lanmak
67
gülüm
fed
geçirildi
fan
durumlarda
farkı
defter
##eğ
dayalı
66
##lıp
başsav
noktası
gerekse
##iyetini
##ie
sürdürüyor
##liam
feth
hayatta
said
olmalıdır
##rü
hast
##dığınız
tanesi
önder
tazmin
bayra
tepe
görünce
tıklayın
##yaman
çalıştığı
komutanlığı
##lerimi
komp
prote
dikkatli
2007
kazanç
market
vurguladı
##larımı
gösterir
seven
turg
uğr
##larımızla
63
bekleyen
##ılarak
numaralı
##iğe
bakın
muay
rob
günleri
##emizin
95
söndür
temas
hur
verici
cesaret
gecik
eleman
250
deplasman
çalışmaya
##dün
##cere
açıklandı
istasyon
olayın
ailen
##ung
hikâ
çizg
mos
şof
olmaktan
arslan
müdahalesi
arasına
yukarıda
irade
kimyasal
mardin
imamoğlu
##ilmez
başkent
##liyoruz
##denin
zan
erişim
azer
mülk
vizyon
kalıcı
yaşandı
elimiz
##ph
kartal
ödülü
anlamı
##mızın
cennet
güncelleme
pazarlama
uzan
##stagram
zemin
tutul
komutan
projenin
blog
elini
tanık
olamaz
##elendir
afyon
##edi
kusur
graf
sürece
##teyiz
ambulans
şampiyonası
nükle
gönüllü
alama
çekim
verilecek
ikisi
alındığı
##ilmesini
cok
geldik
öldü
##ladığını
çağır
eta
##val
##ülür
aşkın
görevlendir
ju
81
muhabir
##liğiyle
kaydedildi
bölümde
üstlen
600
edirne
##mediğini
##eceğimiz
wo
ziraat
##los
patlama
omuz
duyurdu
ettikleri
kumaş
##dınız
alıcı
windo
dikkati
ahlak
dosyası
başını
konularda
yetersiz
atak
oldum
kemik
sho
teşkilat
suudi
dolandır
oraya
üstü
##mon
##dev
karşılıklı
##biy
geriye
rezerv
stratejik
fı
##ecik
##ustur
birleşik
ispanya
öğrencilere
##ss
akar
hamile
koz
edebilirsiniz
gayet
apart
##ilmesine
##che
ste
div
bulan
karşın
kolek
esen
kolayca
##ayım
link
up
##likte
##¦¦¦¦
unutul
akademik
##lesinde
başkanlık
karaman
çekiyor
belirlendi
garanti
demiş
adliy
alana
##ded
bula
alanlarda
bro
hükümeti
kesint
sekiz
hayatın
##22
başkenti
takımın
##lit
tüketim
kullanma
gürül
anında
kaydı
yaşama
isteme
sığın
devre
istatistik
salih
cey
şö
panel
##alist
##ima
helik
vefat
##asız
londra
seçene
köylü
##tadır
bulunmak
alanlar
##sör
çeyrek
##ğiniz
dönemin
##zığ
und
##opter
bölgenin
teor
görevli
kaldığı
japonya
haberlerin
payı
oluştu
star
pratik
diliyorum
düzeyde
##ight
dairesi
##balı
eyalet
sınırlı
gelince
akra
yir
##mis
##âb
eşlik
##tl
##lemiş
yaşay
##limp
gününde
matematik
derecede
numar
şok
gidecek
my
sunulan
medyada
inf
61
ilah
yayla
##tıcı
nükleer
##lamaktadır
dışına
şehri
log
toplan
ülkeler
hip
efendi
ım
yerinden
vadeli
gösterdiği
kurtuluş
fas
##unç
çıkıp
yapıp
ihraç
##tıktan
sektörü
##tük
##luluğ
azından
şubesi
##ああああああああ
yapması
ihtimal
burası
hükm
teker
tanıt
çıkart
düzenlenecek
ein
labor
edilerek
olacağız
##bel
yapacağız
##şak
kitle
keyifli
elazığ
kk
sergil
endüstr
ırk
suretiyle
##usuz
ortada
bran
##ned
ilim
##manızı
##lıktan
denize
olduğum
windows
arı
güreş
holding
istediğini
çiğ
konuya
türkiy
erdem
kavga
hadis
##lib
barındır
günah
trt
klima
söylemek
ideal
olmaması
bugünkü
sunul
##mu
##mece
operasyonda
sürecinde
benden
duyarlı
ulaşı
##mesin
tac
arasından
kısıt
seçimi
sabır
ermeni
bizlere
oynanan
##yolu
başlaya
dedik
tad
##umuzun
ekrem
cor
tey
##masyon
sorunlar
yaralanan
karma
anket
ikili
yaptım
pilot
kula
çalışmak
psikolojik
##şkın
193
col
ikt
##lıyoruz
##feri
oğuz
hazine
sayede
ömür
bulu
##ıştı
ilke
##siyel
göğüs
ital
memleket
gor
mete
yılları
apos
sıvı
helikopter
düzce
sıralarında
elinden
gözden
uygulamaları
buluştur
edilebilir
yerler
bekliyoruz
ayakta
from
yükseldi
##usunun
##ilirken
##acağını
##iki
güler
##dere
uzaklaş
yaptırım
öm
görevini
iğ
sayısının
ahş
##dika
faydalı
sunum
yalçın
öztürk
gerekçesiyle
sandal
delik
başladığı
gam
ras
oradan
##25
##ıı
bulunması
iyileştir
selim
hastanede
cenaze
##diy
gerçekleştirdi
eşliğinde
##iyorsunuz
çıkarak
adr
##rul
alınacak
görünüyor
kerim
yönde
68
tıpkı
ilerle
arda
önemi
hastalıkları
sürpriz
karşısına
bileş
olağanüstü
##fez
süreli
savcı
kırsal
cemaat
gemi
##yurt
hel
kred
şeye
şere
cengiz
şeb
devir
##oyu
plaj
sandık
adıyaman
but
yunus
##sh
fındık
##´ne
76
##emize
kiralık
yaprak
##tılması
mesajı
69
##sis
##ebilmek
rev
şeyh
##lamayı
##ges
zincir
siyasal
aldığını
inanıyorum
çekir
vs
##arlar
toplamda
dır
açıklamaya
efsan
olmaktadır
endiş
bulunduğ
hot
##mali
meydanı
çatış
ürünlerin
arkadaşları
başlıklı
altındaki
##eceğine
perde
ful
çağı
derken
##use
uygulanan
gönderildi
terim
sm
sözlerine
##leniyor
uyumlu
biridir
bacak
oğl
##varı
geçirdi
konuyu
talimat
bos
getirdiği
olimp
italyan
itibarıyla
çekmek
laboratu
##liyeti
skor
##ladım
falan
##duğum
başlamış
belediyespor
sy
imz
77
##lanabilir
112
vası
biliyorum
müzak
tutuklandı
fırsatı
kapsamda
sordu
##çılık
şekliyle
katılımcı
dig
liv
haftada
kıyas
dönüm
müf
hareketi
vicdan
yerleşim
iman
ittifakı
raf
siteleri
tuş
imalat
##jan
yorgun
kapsamlı
gecesi
görebil
##suzluk
##all
topu
maçın
##iko
düşünür
açan
merkezine
##umuzu
sürük
bakır
ust
parkı
kurş
arabistan
73
şair
lak
kep
ibadet
durumun
saati
liste
##lel
eren
bölgesel
ahşap
pom
##tikten
##tılar
##ai
arttı
haya
eğlenceli
##eke
kalabalık
geçiyor
##ane
olduğunun
##´na
##lenir
hizmete
glo
çekici
##elal
##hing
araçları
yöntemi
tecrübe
ulaştır
aran
74
hattı
##esince
ülkeye
isterseniz
biliyoruz
kemer
ulaşabilirsiniz
manevi
##´s
oluşturan
bizde
idaresi
laf
##isindeki
##ami
ast
haberin
üncü
##gur
riv
müj
taki
çır
fırat
##illi
kadir
##dî
##lamıştı
##ciğer
##irt
adıyla
istikrar
##uf
olunca
merdiven
##abilmek
hek
ücreti
geleceği
personeli
kazı
what
enteg
2006
oyunun
yönel
harf
##yü
##15
nere
sisteminin
##lıyorum
sebze
teşk
minik
üretilen
açma
##ald
açıkça
arşiv
##tip
olsay
kavg
alımı
bolu
sitesinden
olmanın
pencere
##ende
gayrim
işyer
##içi
##menizi
fela
air
aylarında
disiplin
yükseliş
haş
paha
sinan
kardeşi
fit
bölün
seçilen
ayşe
alınır
##´i
afgan
projeleri
vekili
taze
bizzat
şartları
##imizden
editor
mahmut
aktaran
işlev
yumuşak
##lamaları
120
satışı
##ılmaktadır
devreye
geldiğinde
olayla
etmişti
##mini
alınmıştır
fırt
makinesi
tutuklu
sürdürdü
dörd
zanlı
alırken
felaket
kapak
miktarda
off
şeref
##amızda
çil
söyleye
çağdaş
potansiyel
nci
aksine
##medik
##anak
emlak
tef
kendileri
olmaları
yerleri
alabilirsiniz
eman
müzesi
##uzu
yazdı
başarılar
inanıyor
mevki
verilir
projeler
bül
sözlerini
hesabından
fre
şartı
firması
niye
ihlal
şeyleri
attığı
tokat
gözük
##etici
##kal
gala
hid
kadını
istiyorsanız
liraya
yürek
teşkil
prim
##racak
yılına
eline
maliye
##likler
kade
##eyn
öv
halkının
toto
ortasında
##müştür
köpe
bölgedeki
are
sözleşmesi
yazıcı
tekst
hakkındaki
liman
sağlanması
olaylar
rejim
dondur
çoğunluk
yapmayı
ked
ölen
birine
töreni
##ınızın
kktc
##baycan
getirilen
aydınlat
##rit
malzemeleri
gergin
adresi
tamir
ısrar
delil
koyun
çalışmaların
yoksul
fidan
78
tedar
yoğ
##bilirim
muha
körfez
zu
ıl
bulunma
mağlup
len
ipek
şiddetli
sınavı
keskin
##landırma
##burg
buğ
verdik
sendika
oyuncusu
sürdü
giyim
sebeple
##ife
özer
pres
olmayacak
##16
tehlike
azerbaycan
ilerleyen
##vat
üyeli
sanal
tarafında
lay
bilmiyorum
72
##ruklu
taşımak
benimle
##melerini
burun
gazeteci
vermektedir
##amaz
##viç
bozul
koyu
istihbar
samsung
hakaret
lüks
kullanılması
bitki
hakkını
kursu
ulaşmak
anım
dalı
fah
banyo
yapabilirsiniz
avcı
kole
kadına
filmin
##fan
ülkelerin
sürdürülebilir
başbakanı
yazdığı
##000
##lanırken
kurucu
gözleri
kalacak
ilişkileri
donanım
alanına
##iledi
tom
tuttu
zihin
##aray
burak
##imden
okumak
mülte
fatura
korunması
2002
işleme
gezi
şimdiden
sürü
##18
forum
##ld
bizden
camii
göstermek
##ladığımız
##tayız
bulgar
çevres
edilmektedir
tıb
war
tc
çim
editoryal
çıkması
görüldü
ederiz
garant
değişikliği
kutu
adil
muhatabı
caz
gas
##yaj
boşan
türkiye´de
kadros
korkunç
bakalım
erdi
dolara
##gn
kurtarı
tamamlandı
olmasa
##dular
başından
işit
mantık
paralel
utan
ci
haftasında
turan
garip
##ezil
özdemir
eskiden
blok
masraf
vermesi
arayan
sahada
tüketici
gelişen
yaşadı
faaliyetleri
saatleri
lam
medeniyet
etiket
##tikleri
##layınız
tüz
tekir
koleksiyon
nato
nefret
##rip
dokuz
bulunduk
tutum
insana
mekaniz
ukray
##lanmaktadır
başkanımız
duyduğu
##idi
büyüklüğ
başakşehir
evli
sıkış
alay
suna
suyun
kaybı
dudak
yolun
leh
olabilecek
##cası
anlatıyor
ayrım
##şek
kritik
konfor
kapısı
96
kayıtlı
##utin
##oft
##liman
dünyası
kütah
yavru
ettiklerini
deneme
operasyonu
piyasaya
avustur
reform
2005
medi
ediyordu
ayrıldı
tavır
temsilcileri
çadır
mide
etmeyi
enfeksiyon
sürdüren
oğlum
hepimiz
hikmet
ceph
çıl
das
dördüncü
sunduğu
herkesi
dor
dağıtım
brezil
bedeli
sözler
çevresinde
##alog
neş
oranda
79
sağanak
olurken
##unuzu
neyse
##fil
gözya
ndaki
şan
dönemine
gebe
öp
makyaj
##14
yolunu
tohum
sözcüsü
lat
##wer
tuğ
anlamlı
çabuk
tasarı
ekiplerinin
out
youtu
orij
müzakere
##ladıkları
##müştü
silin
katkıda
afet
##pet
nar
denge
doğur
##ledim
adnan
denildi
##çilik
değilim
kuvvetli
genişlet
devamını
##has
araçlar
veli
##sed
##ganda
paylaştı
isyan
##ure
sitesinde
##erler
##uldak
bizleri
hükümetin
diyanet
yayımlanan
çalışır
deli
görülüyor
senar
##onguldak
tün
vas
başladım
yapay
neticesinde
gre
parlamen
ithalat
##maraş
yatırımcı
##´te
tamamı
öykü
tir
sağladı
##vin
doktora
makale
##madım
macer
portf
zamanla
hele
dönen
olgun
ailenin
taşıyor
öğrencisi
başlatıldı
kaymakamı
kurmak
##operatif
##elli
kupa
turgut
tarihinden
burs
tescil
##xy
fuarı
dediği
zeki
olama
krizi
##luğa
##vert
miras
kılın
tüp
çavuşoğlu
kaynağ
varlığı
haftalık
müsa
##enkul
etkisiz
hâkim
##ök
duruyor
çizgi
kahramanmaraş
teklifi
duygusal
mail
ekiplerince
dü
you
oturan
zonguldak
pozit
##ester
intihar
hırsız
##tral
##fed
oyunlar
telek
visit
programları
84
kalıp
##eneral
babasının
seyret
görülür
platformu
hazret
mevcuttur
ilimiz
##ledik
irti
##lanmasına
kars
miktarı
tedarik
62
dünyadaki
##site
editörlerinin
##ğit
mm
tekstil
kurtarma
kaba
verdim
numarası
oluşturmak
##iyo
global
##bahar
serin
enstitüsü
sezonu
olduğunda
2004
küf
hepsini
sınırları
##akk
##âz
yon
karan
sünnet
sermay
##uc
kapit
##ish
lib
##acaktır
sanı
##iyesi
gerçekleştirilecek
stok
sizleri
sahipliği
##üme
kader
amatör
yapıldığını
başkanları
bonus
##ileriyle
##imini
##esu
dha
yükselen
dayanıklı
yapın
yayınlandı
##name
melek
86
geçirmek
özür
##matı
dükkan
kooperatif
bre
edildiğini
bahsed
##poz
this
listesi
annem
tarla
girişimi
##lerimizde
berlin
suçlu
buluştu
verdiğini
##imle
suçundan
teşekkürler
namazı
tarihine
##mayacağı
örneği
##lanıp
emr
çe
yirmi
katk
nereye
karn
##lenerek
kontrolü
tuva
başlatılan
aksi
##ılacak
##abilen
yurtdış
gücünü
dışındaki
dola
##gari
##önü
tavuk
gölü
##ates
kedi
versiyon
##cilerin
kolaylaştır
büro
##düs
katlı
kaygı
isterim
madalya
zul
##ati
muhar
nihayet
yakıt
one
bla
gözlerini
kadık
kos
oktay
çatışma
karşılığında
##ektif
dom
tekirdağ
denilen
sn
mümkündür
##imet
ote
sesli
pahalı
tıbbi
##gini
davut
kg
söyler
yetkilileri
çarşı
##ğınızda
emeklilik
uygulamaya
ifadesini
##nn
##aca
##rop
kendinizi
tol
arayış
kampany
konular
98
website
bizimle
ordusu
rengi
talebi
##chen
dk
etmez
böb
estetik
yoldan
özlem
koku
uyruklu
##dikal
hesabı
gayrimenkul
doy
##çılar
haksız
kütahya
bilgilendirme
grafik
dede
##kâr
ahmed
muz
vuruş
planlama
uf
göv
işten
hayatına
hamur
ikna
##larımızda
saatte
ikamet
japon
açtığı
##çilerin
97
geçerek
getirerek
onlarla
şarj
##âl
geçiren
deh
hitap
beton
havaliman
sistemin
keyf
##ting
87
gro
kurumlar
##memeli
stres
okula
##banın
otomobilin
##şen
haberine
kadıköy
olurdu
bulaş
açıklamasında
gidiş
##malıyız
içecek
etkisiyle
kısmını
oluşum
oynadığı
##lilerin
peyn
anlamında
orijinal
karışık
efend
##tüğü
##asa
ettiğimiz
şimdiye
yerlere
kentin
toplanan
##inda
boyun
dönemlerde
sürücüsü
##emizi
##cev
hepsinin
yoluna
sektörünün
korkut
sizlerle
itiraf
##eceksiniz
müsabaka
otomotiv
olmuyor
sonradan
##dağı
##lova
##luğun
elektrikli
emeği
firmamız
şoför
limit
mutfa
baştan
##abileceği
zararlı
çalışı
köyünde
dediler
##likten
yazarı
##ice
kızılay
soruları
oynayan
daima
teknolojik
topluluk
dayanışma
##lamıştır
gelmiştir
asf
kızın
çekerek
gran
##danın
##ilmişti
##ünce
##esun
şansı
gökhan
ilçede
etkinlikleri
durak
havaalan
eseri
kurşun
tarafı
izleyen
geçmek
ağab
##luğunu
##liğinden
engin
heyeti
izleme
şirketleri
oyuncak
zem
bağlam
mühendisliği
2003
milletler
veriler
karbon
değişen
göze
suriyeli
##ıyorlar
canlandır
hariç
istedim
plana
yardımıyla
kazanmak
telekom
##dırma
##göz
yetişkin
88
insanlık
edici
##yim
geçmişte
isimler
dünyayı
aşık
kütüphan
istiklal
çarptı
kodu
onlardan
gözler
işlemler
asgari
katılımıyla
iske
amerikalı
doğalgaz
fatma
ret
##zersiz
formu
iktid
yeterince
dergisi
##ılmıştı
düzgün
##vası
bağlantısı
köken
liradan
füz
robot
##liydi
ruhsat
##masız
nitekim
pakistan
hocam
##imizle
kenti
egzersiz
isteyenler
doğrusu
endi
gun
rey
sahipleri
bilimleri
döner
söyleyerek
zamanlı
milyonlarca
girdiği
bulabilirsiniz
##yd
dinamik
##17
##attin
bası
beda
bekir
pozitif
sıcaklık
olayları
meb
##duktan
##dk
bilinc
dağıt
tazminat
etrafında
##çısı
vergisi
karşımıza
kararını
varan
mecbur
##caya
##lanmaya
atış
##io
çalışmalarının
almıştır
##ct
teki
konuşmada
ürünün
sıradan
gerçeği
##umuza
rize
türkmen
sömür
otob
öfk
hırsızlık
ayet
şekli
kurtu
şeyden
aldıkları
yaratıcı
##larınızın
##mekle
hedefi
kadınlara
çıkma
olmasının
istihbarat
##ag
güçleri
giresun
sorular
olmakla
istikamet
gençlerin
youtube
olmazsa
fıs
##çileri
heykel
##berg
anlaya
##aydı
nil
asan
işini
avusturya
ukrayna
##vil
laci
ine
##tüsü
yalı
dert
cap
sekreteri
kimin
##halde
##lası
kişilere
geçirdiği
##cy
taahh
inanılmaz
çalışmalara
yazısı
yiy
1000
general
yüzme
oyuncular
yıldan
##meme
anlatı
alp
##türü
vekil
göstermektedir
kaybed
char
aktardı
çapında
semt
ray
hikaye
##gılı
bakımı
kimseye
teşkilatı
muta
83
yardımı
yalova
##acağım
pis
ismini
beslen
diyorum
ınstagram
rep
800
intik
doku
vesile
balkan
94
real
##ilerinde
meme
toprağa
yürüm
içme
ayrıntılı
hakkari
akım
memnuniyet
layık
##iyiz
##oks
ayrılan
##ğeri
full
düzenledi
binası
89
##´ı
gerçekleştirdiği
##portaj
bulur
##bert
##tez
montaj
mağaz
##kova
organik
##vaz
suya
öğrenme
ertesi
sekreter
kek
##lerinize
venez
ekledi
ekipman
micros
tüt
yüzüne
refid
yürürlüğe
tarifi
prog
rahatlıkla
##maktır
herhalde
##lıyordu
uydu
harita
isa
merkezli
erzin
sevinç
sözcü
umarım
anma
madrid
obj
etkinliği
serdar
yıllarında
görevlisi
satılık
röportaj
##lon
yapılabil
binanın
##ehr
oluşturduğu
tavan
yaptıklarını
teknolojileri
ünal
##onsor
başlandı
##kusuz
##duklarını
kudüs
##lanmıştı
ölçek
##cik
sergi
atılan
ödey
pik
##miyordu
dürüst
göst
sponsor
##ive
endişe
alakalı
alacağı
turiz
çekin
tıkan
yarısı
##wor
tahliye
aza
##emiyor
koruyucu
ayağa
odaklı
##uld
karşılığı
aksesu
82
ergen
akademisyen
teknolojisi
hırist
##diğin
uyarınca
cezalandır
harekat
##ena
yazan
koydu
##utma
biber
yönetmelik
tesisleri
uygulamalar
noktaya
sizden
loj
kuruş
boru
istenen
topar
##ebiliyor
veda
alanlarında
öğrenmek
denir
##cell
yetene
giderken
kırmız
yücel
##uncu
derne
##mus
üyelerinin
##lanmasını
nişan
reddet
##larınıza
rahatsızlık
gerekirse
have
seçimleri
duman
muhalif
##irim
oturum
ulaşan
ülkelerde
meşru
yazıları
bastır
2001
gene
yemeği
turu
domat
veter
üretici
seminer
başarısız
ligde
##dine
##alya
getiriyor
görüle
şirketler
onarım
seviyorum
dinle
şahit
##tel
yağlı
ypg
araştırmalar
uzaktan
adaylar
##mıyorum
firmalar
##mda
sonuçta
kentinde
##amış
üyelik
##tiğim
şe
sag
mühendislik
hastanesine
sistemine
detaylar
geleceğe
ihmal
fikri
##ılmaya
bedava
sosya
dizisi
elbise
budur
more
yönetici
kalmak
kolları
oynay
##sten
mektu
karşıy
kanada
acık
kayser
bildirim
eng
cevab
##arap
ağırlık
asfalt
evlat
erzincan
yüzünü
uzaklaştır
bankacılık
##lülük
beraberlik
##gor
izmit
##dişah
##eğin
arıza
somut
gereksin
partinin
üzün
parayı
sizlerin
çıkmak
randev
ortadoğu
restoran
##yeri
nereden
##ml
keşfet
hayati
frag
gelmektedir
özkan
haftanın
etken
işveren
tarihte
kullanıcılar
ley
görünen
çığ
koordinasyon
oğul
##bilmek
işle
şem
erol
##cal
veriyoruz
mum
galaxy
danışmanlık
afganistan
kategorisinde
moskova
kaşı
taksit
190
meselesi
etap
değerleri
anlayışı
ülkeleri
içeriği
aldığımız
rakib
bilişim
tarzı
bekleme
kib
##ian
##larımızdan
lastik
##ızı
çıkarmak
ötürü
tutk
tekne
haftası
macar
fikr
seçmen
politikası
esir
abone
bakar
vatandaşlara
hâl
programına
böylelikle
ailesinin
konuları
salonunda
kültürü
kısmında
evvel
yeryüz
piyan
terörle
yaya
istedik
gelmişti
minibüs
cek
birimi
birleşmiş
bitti
sözde
alınmış
edecektir
evrak
##akar
##diğinden
nitelikli
##ach
down
yapmanız
##tığımızda
kullanılabilir
##linik
mevzuat
kendisinden
rüzg
##ularak
tıklayınız
muam
türkler
##eyerek
insani
konusundaki
max
meteor
yakınları
borc
ilanı
profil
yemin
görüşmeler
##tre
mel
sigort
muhtemelen
bilinmeyen
zer
fig
düzenle
##ola
kentsel
##balaj
karşılaştır
mater
##yeni
elbis
selçuklu
hotel
vize
çanta
albayrak
oluşturulan
##yat
artarak
sistemini
hatip
olimpiyat
padişah
tuhaf
kuruluşu
cerrahi
sergilen
harcama
##laşması
##ýr
tahta
demokrat
kılav
##dön
portföy
gı
##lüğünü
yüklü
seçenekleri
##tıracak
ambalaj
çiko
##iret
işletim
##sus
konaklama
##sar
##sındaki
getiril
##hu
ilham
bayrağı
kalitesi
kurumları
ulaştırma
şarkıcı
digit
##uştuk
nice
##ction
kuruluşları
ilgilendir
başlamıştı
atmos
söylem
sök
coğrafya
##biliyor
93
aleyh
year
kocaman
##bür
gökyüz
emanet
taksi
asit
isimleri
yetkililer
porno
üreten
sektörün
yazarlar
##ûl
1999
##beri
işlemlerinin
şaşkın
##lemeyi
tartı
bilmiyor
üzeri
görüntüler
şifre
nesne
izlemek
özgün
##13
##ılıp
şehirde
programda
donald
emper
700
artıyor
##taç
zamana
##larsa
##une
mahallesinde
liralık
başarıyla
##hington
anıt
ibaret
will
oz
gönderilen
##yaz
sunmak
tarihe
federasyon
süresince
deplasmanda
microsoft
cah
riski
tırman
girecek
lacivert
evrensel
##gücü
müdürlüğüne
akraba
kendime
azalı
birinde
tarihlerinde
cevabı
polisin
şüphesiz
cinsiyet
##cili
burcu
##ülüğ
eşsiz
olmasın
##iminde
##dıkça
arkadaşım
##ulacak
yla
kastam
gittiği
baskın
tarihinin
sov
##tılı
şap
gev
anlamak
süz
kriter
tutun
birbirlerine
stil
http
washington
yansıt
işsizlik
##ildik
yetki
çözümü
iştir
açılması
rec
askerlik
hayvancılık
yarışması
yolculuğ
ülkeyi
razı
##alis
kandil
faruk
ııı
etkileri
kapatı
fırtına
onlarca
yıkama
##gk
kitabın
yazın
gelişmeleri
planlanan
sıralama
hayatında
giyen
pır
##br
belde
sıç
kısaca
yorumlar
ms
gösterilen
kurulması
koordinatör
çıkara
##allı
kucak
belirsiz
##kın
oyunc
metrekare
bürok
##28
##bası
kasab
##27
##parta
anlata
devamlı
##tte
##emeyecek
çalışırken
flor
girmek
idlib
yapılmaktadır
izleyic
kaynaklı
##zir
##zen
çıkarılan
köt
satıcı
venezu
##dıra
##ırda
konulu
gösteri
çorum
oluşur
eti
odaları
mücadelesi
saldırgan
dolandırıcı
##das
müth
izni
istediklerini
farkındalık
şampiyonluk
samimi
bileti
nakit
karayol
##api
all
ifadesi
olayda
##60
böbrek
söylediği
##luğunda
hazırladığı
şampiyonlar
alanya
masaj
##îr
krem
bot
vatandaşın
ediyorlar
geze
yüzyılın
pist
domates
##ıplak
##vanı
verilmiştir
gözü
zah
santral
araçların
pencer
karabük
edenler
zır
toplantıya
wat
asay
soya
ceh
olabileceğini
programında
hani
ülkemize
yahudi
müthiş
belirgin
kurduğu
misyon
kullanıyor
##ilebilecek
##ılmak
##saspor
görevden
kampanyası
kaynaklanan
sitemiz
aşamasında
##leyebilirsiniz
aksaray
öncü
girip
##yesi
adamları
##ker
mekân
yargıtay
fal
##cav
##cay
olanların
show
balkon
gb
kömür
merkezleri
##idin
arke
##çekmece
hatırlatan
##takım
ilde
##taydı
kaynaklar
##ã¢
kopya
##aklı
olsaydı
sezonun
otopark
islami
müraca
##dıran
edeceğini
tecrübeli
avu
bursaspor
titiz
arazi
hazırlanıyor
##lamalar
yapılmıştır
kesi
ihsan
yapılarak
milletimizin
##sün
##tının
önemlisi
bulma
çamaş
##lerimizle
dersi
180
zeytinya
##kas
##mede
kaptan
memuru
##ect
paylaşmak
uydur
dostluk
muhafaza
isveç
rot
##iştir
serisi
diğeri
katil
ili
kurucusu
bire
bilimler
##ope
pre
ederler
##sapp
##üldüğü
davası
dönüp
girer
çakır
sayısını
yöneticileri
##laz
verileri
olabilirsiniz
nadir
hic
güzer
bk
propa
müdürlük
cüz
##idor
yüzyılda
koşulları
şam
öğrenim
bakanlar
##tara
aktarı
##üsünün
tff
karayolu
evleri
vurdu
üzüm
içerisine
##urk
sözcük
tutmak
ısparta
yapış
başladığını
berek
adımlar
##tive
gösterge
beraberinde
batman
kongresi
yaşandığı
##tro
boyn
havada
##lıkların
tarımsal
cı
##dor
ert
hastanın
birtakım
##emli
sorunların
arkasından
cemal
musunuz
yazma
geliştirmek
muc
iletişime
ithal
##memiştir
anlaşması
ram
kıymetli
meşhur
karat
##în
https
yakında
işken
sokakta
boşal
##laştırma
müjde
birşey
rivayet
konf
tabak
düşündüğ
##kender
##ew
çekilen
bölgelerde
mesafe
##oter
sendik
girmiş
ertuğ
marmar
başardı
fol
değerler
##ilmek
##ğünü
city
duyar
eserleri
kırmızılı
refah
direksiyon
sınıfı
oyuna
oranları
##lanın
direkt
gündür
otor
tatb
çür
ispanyol
##ole
##ınıyor
##pss
trib
gülen
bilecik
sağlama
koya
alabilir
buğday
yönlü
zeyne
bankalar
##ja
resmen
olmas
olmasından
özellikler
##40
sezonunda
musa
alçak
sözlü
kaçan
mc
##ladıklarını
ebû
dekorasyon
sic
müze
gerekçe
verebilir
##asi
çektir
sisteme
kalmadı
ağırlıklı
kişiden
##wa
komün
rady
kalkış
yönetimindeki
kastamonu
çiftçi
küt
oturma
##´daki
ülkeden
akla
tuta
##yn
##emedi
##bs
##ational
dinlen
##gelen
lerin
dib
kullanılarak
temizliği
world
koridor
asayiş
değişiklikler
çalışanları
saatlik
kaleci
##duğunda
uzanan
görülmektedir
##low
##press
kablo
sertifik
##nel
##çü
yaptığım
bulutlu
veteriner
zamandır
gelecekte
dursun
##osunu
##âyet
ace
toptan
##anam
almayı
protein
kitapları
##xt
mahkum
##lerimizden
yoz
işsiz
sürecek
##leştirme
erkan
millî
senaryo
##ces
sertifika
##ispor
##karahisar
çoban
oynamak
canım
seviyede
emperya
ze
turkcell
geçecek
satır
muayene
##tın
bardak
böcek
yayı
takdim
özcan
##lığınca
rıza
başa
vazgeçilmez
şükür
koruy
##iti
##gon
##leyebilir
tsk
sw
##lendirme
kasa
dere
aut
iskender
fonu
##ju
ihtiyaçlarını
milletvekilleri
katılmak
ört
seçimlerinde
adem
dönük
öncelikli
geçtiği
katılacak
venezuela
dostu
belç
yarısında
tebliğ
edilebil
gönl
yüklen
alışkanlık
##port
propaganda
eyüp
gitmiş
konuşmasında
bırakıp
fiyatlar
sara
aradan
şirketlerin
cis
transferi
tho
laboratuvar
vatandaşlarımızın
##mayacağını
##medim
##ilyon
yöntemleri
toplama
fırın
bart
eleme
unu
şehircilik
ayağı
ölçüm
genelkur
şeytan
ikincisi
taahhüt
referan
amas
##duğunuz
kov
gelmez
başlık
unutmayın
kilogram
hayli
sayfasında
resm
karara
levent
bakter
bölü
##miyoruz
çoğunlukla
irtibat
aranan
##lerı
sahasında
sudan
ınter
von
okuyan
aileleri
katar
##iğin
anlatır
yıldön
ilkokul
##luluğunu
oruç
yangını
##´yi
##irli
müziği
kurdu
atarak
hepimizin
ertuğrul
programa
depolama
komitesi
kararlar
sembol
yarattığı
ortamı
kurma
verdikleri
subay
tuvalet
gibiydi
##´deki
gönderdi
çir
cir
valiliği
testi
seviyesinde
cel
saçma
mezunu
##dinde
şerif
verip
aki
staj
##imler
başlamıştır
bırakıldı
ispat
gan
iddianam
fazlası
atölye
haklarını
beklet
kimliği
tahsis
yama
gazeteciler
##iyye
##cağından
altay
ty
##lemiz
yiğit
kaleme
avustr
esnek
alkış
altından
verilmiş
bb
##igh
öğretmenler
pişman
kanalı
kd
jam
##dışı
olanı
tema
sorumlusu
dı
litre
tezgah
varlığını
entegre
ilgisi
kpss
rız
müracaat
oluşturul
ziyareti
adası
ebu
ayının
habere
eks
##alisyon
sevilen
gözyaş
sis
perak
##eyiz
##ses
##nav
köle
genelkurmay
koalisyon
brezilya
makina
başrol
türkiyenin
denen
vermeden
sars
avm
arapça
kardeşim
##stra
detayları
vatandaşı
seferber
seçimlerde
gittim
karşılaşma
sözünü
tamamını
reç
bakıldığında
direnç
birincisi
ifadeleri
kanaat
abdul
sürüm
verdiğimiz
yemen
yapılabilir
adliyeye
fotoğrafı
sağladığı
antrenör
performansı
artması
uşak
##ling
başkanlığında
rezervasyon
whatsapp
konse
kurulmuş
zeynep
çıktığını
adayları
##uydu
hafız
piyasası
isviç
markası
boşluk
sakın
##hen
şimşek
isabet
##tol
##osun
nakliye
kapıyı
bakıyor
sarayı
mr
çu
iyilik
arıyor
karın
değinen
pınar
##barek
düşünüyoruz
yöneticisi
ihanet
##rib
döndür
güçlük
##26
talimatı
start
amacımız
zeka
led
apartman
görünür
sevda
manzara
geleceğini
asansör
maddesinin
##tılmış
ağı
brit
tarihsel
##lini
limon
mezh
bölümünü
doğuş
pazarı
masaya
getirir
sarf
satan
konul
sulama
kova
mert
ayhan
##ason
cihan
hayatının
tüy
karmaşık
ersoy
##uyorlar
seçildi
artışla
##umuzda
turnuva
peşinde
eğitime
bulabil
bırakın
fav
resimleri
deaş
üste
perakende
kimdir
zik
yaşı
artışı
sark
##uki
trend
gerçekleştiren
şır
dünyasının
##çay
hayvanlar
sunucu
önemini
güneydoğu
sektörde
##ûm
piyasada
etkinlikler
##ünc
arma
milleti
traktör
okulda
##ob
şampiyonu
kullanıcıların
köprüsü
sahaya
geçirilen
ilişkisi
değerlendiren
##melisiniz
muharrem
voley
##gul
mühim
kaşığı
kavuştur
nevşehir
aman
oynaya
##ümüzü
sadık
bilem
rica
tetik
verilerine
mutlak
çant
ardı
unvan
hij
bayanlar
kullanabilirsiniz
filmleri
boşa
şev
ziyade
işçiler
randevu
çıplak
mütte
geldim
açmak
##ranı
katliam
##tali
referans
şartlar
kentte
yararlı
rit
isviçre
muş
çalın
bine
pasap
tarafta
damla
chat
astr
ıt
üzüntü
soluk
##oo
##memişti
çikolata
icin
afyonkarahisar
önlemek
##faf
içten
yollar
önemine
##layabilirsiniz
##atın
ekme
polisi
bini
gürültü
##que
çeşme
üskü
bulgaristan
##sad
mav
2023
stadı
ilhan
bam
oynanacak
mesut
##memektedir
##abilmesi
ayına
##amızın
seksi
açıklanan
menfa
göstererek
kadınları
istemez
##lanmasının
demişti
kayserispor
##iyaz
çılgın
misiniz
mübarek
farklılık
##gb
merkeze
##aç
##lecek
kızım
yerin
durdu
günümüze
iddiaya
##ılmasının
rı
cehenn
##için
anlatım
isteği
##işe
gelmeye
tecav
geçtik
##unuza
çiftç
alar
mutabak
masal
ömr
çınar
istiş
##malısınız
epey
kin
meli
sürecinin
görmez
getty
##kent
hassasiyet
muhabirine
yaratan
##kay
uzmanlar
niz
pal
mod
küp
miz
kitaplar
planda
##stri
##ülasyon
hı
dünyasında
parçaları
hayvanların
maksim
##nes
doları
hatı
klinik
değişimi
atama
âyet
geleni
gönderebilirsiniz
ailesine
galip
##meliyiz
fakir
##adı
##umun
sizinle
müttefik
kalması
dediğimiz
nü
gölge
aktaş
dışarıda
cenazesi
kel
deneyimli
mid
şarap
üsküdar
ölümü
##unuzun
##out
tarihten
yıllarca
##celi
maça
##leyic
alex
öğrencinin
varmış
önündeki
indi
##hai
öteki
sesini
tecavüz
etmeden
gelişimi
bors
sahası
kaplama
##pi
kuruldu
dışarıdan
sindir
tüken
over
volkan
düzel
gibidir
beyazlı
artar
kızar
ilçesindeki
müsabak
cidd
ilköğretim
after
açıklamalar
polonya
şidde
malatyaspor
patent
taht
etkisini
bizans
fıkr
binali
hedefimiz
##mazlar
yaşıyoruz
konsol
fotoğrafları
bilinçli
hatıra
grubun
bozukluk
sesle
##ışı
çalışanların
71
kendimizi
malzemeler
sorunlarını
bölgesine
vitamin
edilemez
##ceğin
zırh
kaça
yle
##bolu
türkü
hop
çeliş
kaşık
##tiğinde
tayin
artırmak
kazası
destekli
##ilmelidir
işada
aittir
ortağı
maliyeti
ekiplerine
çırp
##esin
kutlama
##bre
kadarı
uygulanacak
görüştü
##ören
##asebe
patates
gelene
vatandaşları
aslı
1990
sayılır
otuz
##unt
kuralları
duyuru
##ladılar
etsin
kele
##linin
türkç
hakikat
##dent
hane
sorusuna
##eydi
zorla
##madık
istemiyor
tamamlayan
haberlerle
libya
girerek
arif
rektörü
etmekte
içki
sunmaktadır
ileride
atmosfer
hızlandır
değişken
virüs
firmaların
yakalanan
nihat
kalkın
##amıza
sad
##tma
havadan
kazasında
##hap
yuvarlak
##ideki
polat
##sch
kalkan
muhasebe
dışından
buçuk
takıma
sizde
şuan
denizi
karaca
##lamayacak
iddiasıyla
yaşadıkları
##ersiniz
##lamıyor
şeffaf
elden
hint
aksesuar
geor
##lırken
sinyal
kızlar
tünel
hareketli
yaşamı
medy
tatmin
elma
düşünen
törenine
mol
mevk
##sizin
kurulum
tet
olabileceği
polise
##70
big
düzensiz
ligin
ötesinde
om
paylaşı
##deres
##amızı
sokağa
bilgilerin
söylemiş
##cinin
ayın
liber
##lüt
geliyordu
##ekiz
erkeklerin
##mıs
##iliğinden
içerisindeki
vakti
lif
özeti
desen
##veni
durumuna
tesisi
yoğunluk
içe
çalışacak
konunun
##aspor
geliştirilmesi
görmeye
çağrısı
okuyucu
akşamı
verin
akş
##ûr
uygulanması
konularında
arkadaşlarım
##diğimi
sığ
tüfek
gelmek
fren
inanc
gerçekleşecek
riz
##ee
finansman
cre
##mad
yır
etkileş
sorgulama
kullanmaya
alper
trav
fakülte
##pen
boyutu
çözümler
karı
ismet
kâr
teşeb
ertelen
kuşak
halif
yılan
öbür
çele
çamaşır
havacılık
çarpış
yönetiminde
emine
thy
firmanın
140
##laşan
vesil
##cıları
##sunun
tarihin
işlen
ceviz
1980
lojistik
yılların
çekildi
operatör
almıştı
seviyesine
istedikleri
bulacak
##top
ihrac
meteoroloji
görevlileri
izliyor
havay
gal
##adet
grev
uysal
##sion
keşke
who
aşama
tahsil
burhan
termin
programın
çirkin
istenilen
burn
##cam
mücadelede
seviyesi
çizen
kararın
muhtemel
lt
ekonomisi
##ûn
atma
hang
portekiz
başlığı
ök
etmeleri
kapsayan
##kap
istediğim
##omet
yapılmasına
kolaylıkla
elimizden
bingöl
puanı
trafiğe
bilmek
referandum
takvim
yukarıdaki
yanındaki
yapıyorum
##ço
düşüyor
cephe
##yık
demirtaş
kuşada
hort
ero
geçit
doğdu
taşıt
vitam
solu
voleybol
tesisat
##ney
geçmesi
göztepe
##enk
kimya
##esyon
ilanları
aler
ziyarette
şüphe
##dig
gereksiz
vasıt
##ous
çalışmanın
##mik
##ann
kanseri
etmiyor
lö
sunar
âlem
diyecek
incelemelerde
düşer
örgütün
yansıdı
diyoruz
dağıl
görünüş
derhal
##pazarı
##ört
kanlı
büyüt
ekle
seslendir
vaka
yönetiminin
diyorlar
nuri
ayva
sürecin
##ugh
veriliyor
bük
yaptığınız
rüyada
kredisi
##iyar
kasap
##fone
pasta
nikah
ız
kayak
toki
##laf
##lub
##aydın
##çası
tanınan
cihazı
kura
##wo
açığa
avustralya
direniş
gözaltı
black
kopar
metrekar
##lý
dönüyor
görüntüleri
pantol
bron
edeceğ
tarafa
hamam
kağı
##akal
başlıca
belgeleri
şaf
dog
çoğunluğu
ptt
duyan
menderes
##ciliği
buda
taciz
##ganı
hıristiyan
kısmen
başladılar
kullanıldığı
130
disk
aydır
aynen
yazılan
masum
kaçınılmaz
super
enerjisi
aydınlatma
desteğiyle
elif
parma
dâh
çeyre
endeks
değiliz
slogan
sivasspor
ork
savaşın
kullanılmaktadır
maddeler
hızı
##renin
maksimum
hidro
deneyimi
ihtimali
mp
oyunda
örnekleri
katma
ml
##çin
ticareti
sorunsuz
yükseköğretim
##ward
hüz
solun
sayfası
gönderdiği
lor
##ben
sop
döş
saldırıda
##ünür
##indan
tutarı
kına
bebeğin
okuya
duyulan
##je
etkinlikte
çocuklarının
huzurlu
tersine
haric
düzeni
yükleme
kapanış
##tv
etmeyen
cari
düşündü
yazıyor
sancak
fiş
geliştirilen
##evler
##coin
bulunu
raporda
buluyor
lezzetli
çamur
##jik
şehirler
milliyetçi
davutoğlu
getirecek
oyuncuları
olgu
ışid
poşet
gövde
gri
hikâye
##29
dahilinde
etmesini
getirilmesi
söyleş
yanıl
yorumları
ebev
pul
ası
nakil
##gue
izledi
başkanlığına
bakmak
olayların
hong
gaziler
##vo
borcu
##eyt
##leşmiş
büyüyen
hastaların
edeceği
memnuniyeti
karşıyaka
ihracatçı
ışın
törende
zorundadır
tespiti
ikiz
110
peynir
##laşmış
ceo
##hk
uyandır
bulgu
yaptılar
##had
bereket
belgesel
bahçesi
kenan
atlet
best
nitelendir
saman
tunç
yetmez
oksi
##ğince
ışığı
başvurusu
çektiği
köyde
ikiye
mükelle
##rut
almadan
niçin
##tiğiniz
sürecini
##laştı
##tüm
kaybettiği
aktör
villa
abon
aldır
karam
tekin
##dola
çalışanlar
tal
sıklıkla
yuva
oluşturuyor
##ilme
devletleri
füze
kurgu
durumunu
##tuğu
elindeki
##uştum
##tum
##zam
ihtiyaçları
götürüldü
##gir
mevdu
baktığımızda
they
aktivite
noktasına
luk
sırasıyla
başlayarak
şimdilik
istemiyorum
erc
diyalog
müd
galer
şab
niğ
##lamadı
branş
oluşuyor
##ümüze
sportif
hazırlanmış
ıv
yıldızı
doğumlu
altun
belçika
partili
yapılacağı
yatan
arsa
mesai
##mışlar
##ümde
oldular
yapabilecek
dereceye
kazanı
kesintisiz
topluma
##kür
lık
kuşadası
##cıoğlu
penaltı
eminim
casino
##ümüzün
sili
yanlı
adayların
chan
sing
##iter
yönelt
mimari
yoksun
komik
bakımdan
oya
nasip
odasına
mam
ülkesi
##âlâ
sınırsız
##ence
fatur
maddenin
demirel
##isti
biliyordu
belirlenmesi
materyal
asır
çankaya
seyre
moral
##oğu
##lez
seçeneği
##ladıktan
hormon
beyler
ağrısı
fev
kararları
amasya
kud
açar
menfaat
parası
kaldırılması
çelebi
neg
##teydi
ortamında
uçağı
sex
giriyor
görevine
bakarak
durumlar
pembe
küfür
ecza
vermişti
adresimize
ılı
##ited
yaşamaya
pasaport
görüldüğü
anılan
fena
their
yanından
##ift
rüş
havaya
sınava
redded
kaldığını
şırnak
##mayacaktır
logo
##lilere
sevdiği
##wei
##abileceğini
faaliyetlerini
arkasına
doğrul
ereğ
divan
bulunmayan
frank
stu
##lunun
serkan
ödülleri
cumhurbaşkanımız
bilme
arnav
kırıkkale
malı
##ımdan
adlandırılan
çalışmalarında
auf
efsane
kenarında
talih
gemisi
magaz
toplumda
sorularını
muhabbet
kaynaklarıdır
##abıta
çıkarma
işkence
öğretmenleri
öğretmeni
yapmaktadır
yapılmasını
durumunun
hayret
##vey
jür
##90
anlamıyla
hijyen
analizi
##uel
bilgilerini
döneme
yaşamın
atıyor
helal
satılan
##kurt
geçip
putin
##vis
imparatorluğu
şikayetinizi
erte
toplumu
müslümanlar
çıkmaya
ziyaretçi
ozan
eliyle
gebze
askı
düzeyinde
haliyle
saadet
harekatı
çıkaran
##ily
zamanın
değilse
fazlasıyla
stad
işçilerin
açıl
##zade
iftar
duyul
yazılmış
herşey
##ülerek
yazdır
endüstriyel
hayvanları
tadını
göstergesi
atmak
konuşmasını
eserler
mantar
ıst
##reye
uyu
##lidir
##este
tatili
##anya
taşıya
taksim
verirken
istemiş
etkileyen
aksa
nolu
##ıne
tabl
verilmektedir
arnavut
haram
##itasyon
sinop
şehrinde
yahut
##aşı
resul
vermiştir
siber
geçtiğini
koltuğ
çocuğa
afa
felsefe
ümran
araçta
evinin
gerektiğine
üzül
müsteş
aşamada
miting
okulun
##leşen
ekstra
fuat
hev
digiturk
teminat
olmasıdır
##ux
güzergah
şun
##hael
macera
düşünmek
buzdola
genetik
##ああああああああああああああああ
dükk
verildiği
##biye
##buki
##ânî
##ilmeye
gerilim
yenilikçi
standar
##lüyorum
##gâh
bulunarak
##manıza
valilik
##cağının
yaşamış
aşağıya
filmde
etkiler
yeğ
cansız
defalarca
##ert
premi
##yuz
fr
paul
##ilecektir
nan
cemil
inegöl
halkına
sevdik
parlamento
şebek
iktis
öyk
konten
belirtiliyor
jet
##lının
##kadir
pc
nüfusu
kilise
isteye
yürüten
verdiler
varol
yaşta
maka
belgeler
seçme
##ilmesinin
çıkarıldı
maddeleri
##ebileceği
##lerinizin
##birliği
bra
fotoğraflar
faydalan
hastalığın
amaçla
aldığım
ihracatı
kadrosuna
##lid
ini
kaplan
eğitimin
lef
kardeşler
etek
bitlis
##layabilir
hamle
kötülük
url
kokusu
iv
##ath
paketi
sadak
bekliyorum
kuşkusuz
profesör
cd
dub
inönü
##bor
sayfada
beylik
parçalı
sonbahar
çoktan
##ys
sahneye
##king
sağlamaktadır
aniden
çocukluk
takı
oluşturur
götürdü
uygar
açıp
##hr
sitemizde
partner
giys
3d
kullanılıyor
gelebilir
yaşaya
yaşadığımız
anal
çet
kazandığı
görevleri
töreninde
cesur
antal
##cileri
##dükten
##liğimiz
idrar
##tıp
başlattığı
çalışmalarda
hazırlıklarını
dersleri
##âde
##lesini
niğde
dayanan
##odu
değerlendirmesinde
sempoz
ilti
lav
##nda
saygın
bulduğu
yasası
örgütünün
edebilecek
kaybo
deg
anlatmak
##inler
##inizden
ios
çıkardığı
hissettir
kullanılacak
spa
gecenin
ortaklığı
personelin
##lüğüne
hon
hua
##hak
##larıdır
görüyorum
yep
işine
ortaokul
ıle
zeh
##luğunun
zabıta
kurtarmak
kıp
figür
istismar
back
gruplar
sürülen
strateji
##siyle
sesleri
problemi
bağdat
ps
alanın
900
kendinize
savaşa
menkul
saptan
hukuku
sınırı
kazanım
##tekin
pin
içerir
davanın
köklü
ihtiyacımız
##metik
##mayıp
yakınlarında
##mızda
buton
##lanacağı
çekme
atıldı
dergi
##eld
girişi
mesci
çağr
##alizasyon
medres
##graf
kütüphane
etnik
ösy
kaldırdı
##ning
ster
##´ün
sigortası
abdur
nazar
rehabil
ytl
potansiye
jack
olduğumu
kendinden
zihniyet
aileler
kare
##´li
zihn
##düğünde
##amıyorum
diledi
ortaklık
çıkarken
rolü
ebeveyn
alıyoruz
incele
zihinsel
tabanca
yerleştirme
christ
bölgelerinde
düzenleyen
minnet
sigortalı
##iyse
##way
bilmeyen
dünyaca
yükümlülük
oranla
mükellef
##tes
bırakmak
mahkemeye
yapılacaktır
akre
kararının
yaşına
seçkin
ercan
müslümanların
##ny
temizleme
oturup
##ls
atom
yatırımlar
beyoğlu
denli
ceylan
sup
blu
okulları
türklerin
##üsünde
ufuk
hikayesi
##liliğini
seçimler
##ıklık
iddialı
tabir
taşınmaz
kenara
hatun
şak
bitkisel
abi
fur
tırnak
bitcoin
laik
just
##üsünü
imha
##usun
askerler
ihbarı
işlerini
dehşet
kuşat
muhafaz
olacaktı
haberdar
oluyordu
sloganı
##diğince
dâhil
##lanmaz
sunuyoruz
kata
mevlüt
bahçesinde
tro
fiziki
vitamini
ürünlerini
idam
bilge
gelsin
seo
çalışarak
sorumluluğu
##şar
makamında
gerekiyordu
##hid
keşif
sürdüğü
##usa
motoru
yozgat
sorusu
siirt
yakaladı
gezegen
zarif
voda
yapılandır
##tıkça
ereğli
eşinin
törenle
manav
##demi
şükran
pos
patron
yaşanıyor
sakinleri
sosyalist
##itler
zirve
yapmıştır
ofisi
##tas
##ac
sub
otelde
annesinin
gelişmesi
adan
macaristan
bulundukları
tapu
çayı
örtü
tansiyon
hun
artvin
time
zav
yangında
ilerleme
mensu
âlim
rem
tavsiy
rüzgâr
kiraz
##ediler
she
##masi
twe
iğne
##abiliriz
kadrosu
yıp
##iliğin
##ayn
ân
coğrafi
mermer
sicil
sonuçlarını
sayım
okyan
##lesine
##fendi
oranının
sandalye
çalıştığını
tâ
düşündüm
boyutlu
çeşitleri
##fett
cana
duş
david
##ehli
kalıntı
basamak
ellerini
##tığım
coun
akk
bölgesindeki
##pool
adamlar
anlaşmaya
lazer
lâ
format
##yr
şeklindeki
tesli
ruhu
marmaris
avro
çekirdek
vodafone
kıyasla
##ubuk
coşkun
basınç
##cia
yönündeki
midir
kime
bildiği
okum
noter
istişare
mülkiyet
ilaçlar
##luğuna
heyecanlı
350
##mayız
oynadı
meşgul
nelerdir
##çının
rock
kalktı
fiil
konuşuyor
kralı
kendisiyle
yahu
oluşturdu
olabiliyor
yaşadık
servet
yapıya
okut
ss
92
sevindir
yitirdi
okullar
##cesi
##îm
söyledim
geleceğin
kafkas
hareketleri
tercü
##icht
sundu
karaciğer
endüstri
rom
mücadelenin
##abileceğiniz
beyn
örgütüne
federal
gerçekleştirmek
did
mask
karşılamak
gerektiren
mehmed
##ınde
aklıma
akhisar
muhtaç
gençlere
lüb
istediğimiz
##ex
##baba
bağırsak
ettiğiniz
kalitesini
büyükelç
rok
istiyordu
pantolon
tasav
bırakan
##çer
buhar
topluluğu
1998
saldırıya
sırf
maddesinde
yönünden
nehri
birileri
ti
##ettin
suçu
yurttaş
til
bilmez
tamamlanan
sözleşmeli
akciğer
suriyel
belirledi
michael
akif
##dili
belirleme
##´u
yurtdışı
şifa
beste
kule
diğerleri
kulübün
yollarını
tenis
şehre
telefonla
çekip
köşk
bağlantılı
kombi
grupları
asa
##yak
ülkelere
##lig
sürüş
orj
prensip
terc
trilyon
pot
işley
krip
aşan
çen
iktisa
vakt
gününü
başarısı
şahsın
filmler
arkadaşlık
belediyenin
fazlasını
tüketimi
yut
koyan
##kop
dilerim
##cker
##general
afad
##uru
medyum
odasında
##load
od
##mb
##vak
neti
motiv
işyeri
ressam
parsel
sib
düşmüş
##rum
##lendiği
konuşmak
kısmının
group
eklem
donat
##lanacaktır
melik
##35
basına
bağlamda
##sp
açılacak
ibb
odun
kablos
düşünül
opsiyon
##lerse
sanatı
değerini
##yem
balon
cesedi
mâ
kavşa
torun
iştirak
aus
##ydu
aksoy
##bileceği
kdv
yayınladı
esrar
asist
your
sürecine
akan
rehberi
yaralılar
##ory
başara
katkısı
mimarlık
dul
tesa
kıra
biten
olduktan
benzet
oyuncunun
##ımızdan
duya
acar
söylüyorum
yenileme
insanlığın
dedek
soğan
dolap
kimseyi
tekerlek
send
sağlanan
inde
sahiplerine
ösym
##ms
bag
##mazlık
kronik
##alp
##olojisi
##ğım
görüntüsü
çerçevede
karşıtı
küm
kolon
gereğince
##ırdı
koyduğu
hükümdar
kılavuz
pür
çubuk
gittikçe
böylesine
##evî
olursak
noktaları
değiştirme
james
atar
netice
arın
beklentiler
##¦¦¦¦¦¦¦¦
güvenliğini
ysk
plak
modül
##ýþ
afrin
##ılırken
katında
devrimci
##36
meslektaş
baya
oynat
ucu
ağacı
işareti
izn
oradaki
takib
ıp
kın
ihtiyacını
partisinin
cüzdan
kanalizasyon
çıkmaz
özelliklerini
serp
##gay
insanlarla
harc
kuyu
##cistan
fos
açılışı
çaresiz
##mektir
rakibi
johnson
engelliler
çevrim
kasımpaşa
borçlu
##mun
tütün
##inyum
##sika
duygusu
burdur
kombin
düşünerek
diyordu
ate
aro
hissede
tesadü
inov
zarf
balıkçı
biçimi
düştüğü
açlık
los
dönüştü
bosna
mız
##tüel
anlatıl
uyuş
sahibinin
##lığındaki
sıkça
tunceli
##by
arkadaşlarımız
yıkan
##sanın
kaçtı
##üğü
farkına
şirin
##df
panik
projede
olaya
für
hastalar
yepyeni
sih
edilirken
keşfed
##cular
uğruna
artırma
##dunuz
öldürül
ağabey
bulunacak
edilmesini
kullanıldı
sofra
başlamak
vurgulayarak
ilki
başlaması
demet
##lizm
kullanılabil
kelimeler
ışıl
sezonda
lek
kalesi
edemez
efendim
çalışacağız
yüre
yazmak
##jer
talepleri
##ebilen
ların
yapının
keyfini
plus
first
yeten
##ette
##ümüzde
gereklidir
mineral
birikim
gra
vaat
olanları
ormanlık
1994
gözle
belirtmek
##fte
hemşehr
ekiplerinden
çözünür
liver
gezer
biliyorsunuz
its
reak
kısacası
##iriz
girmesi
çalışıyorum
teşebbüs
söyledik
batılı
faaliyetler
destan
ettiğim
which
müddet
##tanı
note
gününe
##melerine
beh
açıklayan
1997
komünist
kusursuz
pyd
malzem
##fir
yarışı
topla
köyün
halindeki
##34
başlı
brex
hrist
bazında
ayna
exp
cezasına
elli
wal
daim
radikal
internette
##fiye
ht
aracılığı
160
mazbat
başlayıp
çıkmıştır
iktisadi
##ulus
nehir
foto
güneşin
kirli
üyelerine
##ciye
home
büyüsü
buldum
vatandaşlarımız
app
##üfer
##larımın
ıma
gebelik
geliri
çekiş
başkanvek
kurumların
organizasyonu
üçünc
master
ilçeye
paylaşıyor
unutulmaz
mahallede
ümmet
bunda
güldür
öyley
atilla
##oth
##lenmesine
nap
tatar
menü
##kik
vadede
##asın
reis
##baha
yasin
reş
##aa
baktım
yatay
yapıyorlar
kalbi
ilgisini
yoğurt
dinin
yetkin
##menize
isminin
keyfi
reng
kutladı
pendik
##zon
destekleyen
durumdan
kurulacak
okumaya
ros
akşener
##oid
kıta
saatler
ortaokulu
istif
ever
hazırlan
dikkatini
##ement
başarıya
diyabet
##umda
ellerinde
cezaevi
senden
suçlarla
onar
kabar
##cilere
paranın
etmeniz
hedefle
listesinde
getirmiş
##şan
bırakma
kolu
halini
m2
anlık
türkiyede
çarpıştı
astsu
partiler
vermez
konumunda
ehliyet
kamuoyuna
kıt
mih
yönden
kitapta
edebiyatı
ustası
konsept
uğurlu
mıdır
##abilirler
iri
suda
beşinci
ısın
boşanma
varsay
yapmadan
hastası
##ınıp
görüp
##cağımız
çevredeki
trakya
fikret
benzin
okan
kapasite
##ski
çorba
harp
muaz
adresinden
spr
meksika
şafak
çiç
yangının
##iciler
değerlendirilmesi
kullanır
arayarak
liverpool
değiştirmek
dinleme
kâğıt
seyr
girişiminin
kıdem
cezaevine
##urdu
sanatlar
bıst
bıl
mekke
başsavcılığı
ord
musun
önünü
stre
prov
kabuk
desteğini
niteliği
köse
inanıyoruz
arındır
yangına
seviyor
##bit
sayılan
tanıma
imkansız
##ym
##amadı
beklemek
##sea
ket
gürcistan
futbolcular
öncülüğ
merakla
gündemi
danışmanlığı
muhakk
lehine
sgk
yenik
kamuoyu
##arda
vasıtasıyla
hamza
depresyon
büyüklüğünde
seçilmiş
olmadığına
tarayı
yürüttüğü
edilmelidir
sitede
senet
iniş
##beli
huawei
açıktır
mul
birde
teşhis
dalg
dilim
kapasitesi
##fab
pakdemir
şenol
kıskan
projeye
##tınız
end
yelken
sarık
yardımcıları
içeride
tüc
negatif
olursunuz
ziyaretç
etmenin
çalıştım
görebilirsiniz
vahşi
ekrana
işlemlerini
şartlarda
adama
##ayeti
meraklı
##pon
bağımsızlık
##oc
alemi
##âk
okullarda
danışmanı
fakült
maçını
bağışık
##sür
şişe
kırım
filtre
##oğul
uygulanır
##tle
büyüklük
##yarak
bireylerin
kurut
aralıksız
sonuçlarına
koşu
##yetler
açıklamaları
keçi
##ings
##diğimizde
ekonomisine
zorundayız
bilgiyi
kayd
##bilen
kullanıma
kavramı
ülkedeki
oğlunun
heyecanı
okunan
geceleri
##lemesine
ileriye
tarafına
muhammet
etkinliğe
azın
kaplı
cr
##ınak
edilecektir
kategori
kuzeyinde
kişileri
##abilmektedir
##ico
puanla
karşılaştı
haberleşme
göğs
cü
vereceğiz
alüm
tehdi
dökü
kalmıştı
##gele
alıntı
##ürken
kumanda
yılını
##iyete
olduğumuzu
seslen
dikkatle
süm
yüksekokulu
klav
güngör
çalışkan
##cher
kaldım
antalyaspor
sergisi
etmedi
mağara
müşav
kendilerinin
kırşehir
aklına
taşımacılık
##aryak
pakdemirli
uncu
yarıda
birbirini
##ilde
seviyeye
aldılar
derv
merhamet
soğutma
akademisi
tartışı
bardağı
bant
fragmanı
düşünün
çiftçiler
cevabını
fethiye
açarak
##gusu
kaybolan
##emem
tüzel
peşin
bulunmadığı
seçime
##ğindeki
akaryak
konulan
##pres
edilmişti
istikbal
##66
yapıştır
denetleme
kudret
1995
edelim
dizinin
esin
şişli
##burt
koymak
ermen
infaz
ilişkilerin
orkest
burju
hizmetlerini
kökenli
görüşü
merkezinin
aramak
##atik
##mil
projesinin
aksu
başvuruları
##ember
savunan
sıfat
seviş
usb
bağlıdır
kazanmış
##epe
bakanlığının
gerçi
sendrom
##tp
pı
sütü
niteliğinde
araca
destekle
ilçenin
yerlerinde
lanet
çarpıcı
##irmen
başbakanlık
günlerinde
##mıyordu
projeyi
nark
eksikliği
eşim
muhakkak
samim
avukatı
şartıyla
jon
astsubay
yaratmak
özgürlüğü
meral
karada
geçerken
tercüme
lap
çöl
tadı
satran
125
sini
deyip
vücudun
sayısında
nakli
rizespor
avrupalı
##ble
şehitler
##larınızda
ebru
##eron
yorumu
##gız
ilaçlama
torba
çocuklarda
##dini
etmem
bartın
kaldırılan
akıncı
sayısız
##ato
kavur
##get
brexit
idaresindeki
redde
##ebiliriz
nimet
been
ıspan
##mayacağız
##ememiş
ita
önlemleri
türkiye´ye
ürünlerinin
celal
free
##öpr
kırklar
alanındaki
caf
##dikçe
devlete
##emediği
diril
sayısal
ocağı
##çelik
##eyici
gazze
gitmeye
malzemesi
vey
william
yükümlü
milit
##uth
##osman
dele
bırakarak
beğeni
sisteminde
kurtulmak
aktivit
vadisi
ışığında
##meyecektir
turistik
takımının
maltepe
bör
hangisi
hy
komb
söylediler
harman
kazanır
##77
geçin
tabiat
inç
harç
##layı
mekanik
buluşma
engellemek
değişti
##ehlivan
times
##masıdır
müfett
hükümleri
##con
##99
sera
gördüğünüz
1960
özerk
dizayn
arkadan
motorlu
##tiz
taktik
olacağına
kadınlarda
çocuklarını
tehlikeye
erdal
konferansı
acele
##ordu
##alet
idda
komplek
bilindiği
programlar
solunum
barcel
şekillendir
borsası
##iel
iftir
turhan
çatal
##lad
asil
##lispor
yazıyı
çalıştık
##ınacak
tüb
mesajları
süreyle
91
aldıklarını
##rahman
salata
haritası
aldıktan
incir
çarptır
krali
oba
##lenmiştir
taşıyı
gözde
pusu
önlemler
##çam
yaptıktan
kerem
ifadelerine
uğrat
tedaviye
partil
##mann
çıkışı
imzalanan
cat
kadarıyla
##enni
pasif
söylenen
faş
dun
adında
katılma
rich
alüminyum
stü
kürdistan
yıldızlı
herş
başaran
malum
anlatmaya
oyuncuların
aptal
maked
araştırmaları
pes
##baz
portakal
pit
yolunun
##jantin
##kanın
yapalım
tanr
##diğimde
meryem
alındığını
burayı
ülkemizi
mahkemece
tered
forvet
ange
sonlandır
şur
görecek
ödem
korkmaz
rss
hiper
çukurova
türb
##ydü
yaklaşan
hum
enter
##layınca
yatırımları
mevduat
##sm
sürgün
bireyler
mahsur
büyükelçisi
manşet
durmuş
verilerin
mücadeleyi
şiirleri
oluyoruz
politikalar
efendimiz
ruhsal
united
word
ayrılık
sahiplerinin
oluşturulması
dum
sarım
##siad
buh
ardahan
kısmına
##my
##uters
yıkım
eksiksiz
sonda
umu
##iba
mig
were
koyup
takviye
nilüfer
olanlara
objektif
zeytinyağı
##ou
yükle
bıraktığı
gördüğümüz
gelirken
gözlük
tarı
rehabilitasyon
tutarak
##üyordu
kazanma
bayburt
hafıza
arjantin
frek
hemde
iddiası
kesimi
yöneticiler
marşı
takımları
soyun
##düzü
oturdu
çocuklarımızın
gördüğünü
bilinmektedir
fabrikası
##vara
seramik
tarafsız
sağlayacaktır
çevreye
yurti
istanbul´da
mag
olmanız
iktidara
olumsuzluk
çeker
yazılar
çıkarılması
##koz
maske
şerit
ötek
zil
pub
dersler
badem
hanı
konuşması
galiba
şeylerin
host
yaşadığını
açıyor
##ford
çıkmıştı
yaşadıklarını
tarihini
haluk
evler
##rd
taraflı
tabanlı
varı
konudaki
kablosuz
programının
takımda
vermeyi
skan
çiftlik
özelliğini
babacan
notu
acc
kabin
varken
##olar
diyelim
##imum
araştırmaya
sevimli
yetin
seti
tereddü
akaryakıt
tru
teknolojinin
sayıları
ailelerin
##sınlar
tuna
adımı
haricinde
ülkelerinde
halbuki
krist
magazin
düzenlemeler
##ıtma
bakırköy
obez
##latan
hedefleri
yapacağını
bilgisini
söylemişti
##asebet
kararına
gelmesini
öylesine
kripto
aydınlık
andan
ülkelerine
##lattı
büyükçekmece
istasyonu
gazetecilere
çalışmada
kestir
fey
sevdiğim
teknikleri
devrildi
konyaspor
hizmetine
hacmi
dim
kafe
koruya
belirtir
limanı
kanununun
tahvil
tweet
sitenin
doğrultu
amirliği
sos
inin
##araya
zamanki
1996
neye
dönmek
yönetmeliği
##amda
çıktık
edilmesine
yetenekli
zaf
##hut
eleştiri
tutuyor
odada
1970
##ansiyon
yetiştiric
nihai
##lileri
evlerine
haydar
gücüne
##üsüne
sorumluluğ
iştah
adının
vaziyet
münasebet
temenni
aln
talebinde
esad
dışarıya
tuzla
lübnan
zirvesi
albümü
çekiliş
##ula
cihazlar
hakkına
vatandaşlarla
eğitmen
kendiliğinden
##and
ikil
gördüğüm
##miştim
veriyorum
##itak
muhtarı
uygulamalı
bozkurt
##ref
ıslak
pri
tamamlanması
news
vil
çalışmayı
##guna
##aslan
ziyarete
fırça
çerçeve
sular
saatlerde
##ılmalıdır
ateşli
##ebilmesi
kurumun
norveç
alak
##kırı
kilometrelik
1993
##chester
osb
yolsuzluk
##ağın
stk
başsavcı
kursiy
şaka
kararlaştır
lah
##irse
çıkarıp
destekleme
böylesi
file
misin
##gunu
taşıdığı
fri
##´tan
uyarısı
seçimde
hasat
##uğ
çözül
çevik
taşır
taç
yazmış
cal
diyebiliriz
denizlispor
bulup
hoşgör
milletimiz
arta
##leridir
aksiyon
mazlum
tabur
görüntülendi
##ografi
ibar
geçersiz
vermedi
öfke
havanın
##isin
evr
aylarda
##wood
parçalar
kurbanlık
biyolojik
##öprü
yanan
üyeliği
partilerin
##lant
yazarın
reuters
avcılar
kurab
hatalı
##apur
çalışmalarımız
kaybeder
duruyordu
takımlar
aldığınız
gey
aramızda
cün
ederse
yanıtladı
geçmişi
kuruluşlarının
##haz
hüzün
rehberlik
ambar
barcelona
karşıt
ankaragücü
##elin
derviş
kalmaz
belirle
##omi
yapanlar
ihtiyacınız
sayg
##lesinin
törene
1992
step
giyin
bileşen
güçlerinin
soruya
tela
sporcular
hasret
##sir
gerçekte
##arka
millete
züm
##âd
kardeşlik
erkeğin
kuyruk
şikâyet
temeli
başkalarının
makul
vereceği
##ladığınız
tot
##ness
şekeri
sep
##ıklığı
ihtiyar
dünyasına
tiyatrosu
taşıdı
titr
hayali
oluruz
##ople
sanığın
planları
seninle
hadise
ilgilendiren
buluşan
about
internetten
videosu
sonuca
halkla
##emde
sezer
değerlendirdi
##ileceği
kaldırım
şiddetle
barındıran
derinlik
lirası
halkımızın
şanslı
olurlar
sıkıntılar
iyisi
miydi
dilekç
artırılması
savcılık
bulunmuş
olmaksızın
eğitimini
nus
aydan
ilkokulu
manavgat
yaşından
katılarak
imaj
##vir
burç
##layacağız
gölg
kapının
##madılar
vor
menaj
##inizle
eksiklik
##diğinin
telefonunda
kırklareli
kılan
yoğunluğu
jean
amp
unutma
##batı
ölümüne
gittiğini
mesel
kozmetik
döneminin
medine
uyk
abbas
eksi
çoğal
içini
görk
vakf
nazım
##abildi
işlemlerin
yöresel
simge
rota
##45
elle
sevgilisi
kandır
kontey
uygulamanın
##laki
sovyet
ölçekli
##iyordum
hü
barajı
##ersen
ender
belirlemek
öğrencilerinin
romanya
tanıtımı
verdiklerini
yasağı
##abilim
gizlilik
sema
başkanvekili
yelpaz
evrim
metrekarelik
satranç
konuşmaya
politikaları
hastalıklar
neyi
oynuyor
şüphelilerin
bilal
kayın
##lash
manas
##ayir
##cük
odaya
oksijen
paylaşımı
saban
ilgil
ödüllendir
satım
beklem
ataşehir
örgütleri
kaldıra
##ünüzü
##iliğe
yayımlandı
düşünmüyor
kasaba
idman
##75
ülkelerden
evlerinde
romantik
##ekte
##eceklerini
yüze
bilerek
çalıştıklarını
ambulansla
kullanımına
etmeyin
hususunda
deyiş
istemeyen
birebir
menz
bülten
koyarak
göstermiş
yaman
##feti
oluşmaktadır
çaykur
##neti
kis
bağlayan
satışları
##eciler
##au
kapitaliz
doz
indirimi
makineleri
##enizi
turizmi
tanker
erit
born
fetullah
mülteci
görüntülü
##ildiğinde
##ala
çare
yaşantı
haç
öneri
yerlerine
bankaların
harry
damat
metab
şener
piya
tedbirler
selah
hareketle
robert
efes
sabaha
püs
konuştuk
başlamadan
uludağ
##madığım
plaket
yazıda
biliniyor
canı
elektro
tübitak
geriledi
##ote
##ves
yürüyen
emri
tüccar
etmemiz
bölgeyi
vuran
eğilim
bektaş
ödü
##bileceğini
mensupları
osmangazi
merkezde
kesme
yapmıştı
başlatıl
çapraz
flaş
teröristlerin
müşterilerine
paylaştığı
düşündük
taleplerini
normalde
tedir
edeceğim
yarattı
restorasyon
kullanıcıları
kullanış
bedeni
getirdik
haykır
göreceksiniz
omur
##tecek
ergün
bayraktar
kapısını
tabela
gasp
derler
konumu
george
yapılırken
chel
versin
otoyol
uzaklıkta
pırıl
hesaplama
##urn
çocuklarımız
ödün
kabak
düşmesi
görüşmede
saldırısı
tehlikesi
bronz
hikây
kabu
server
anabilim
##ang
##ağında
##culuk
##uşu
##yın
enj
hükümetinin
paylaşan
750
##cus
kandili
topal
finale
civar
belediyesinin
karlı
rejimi
ecev
armağan
mun
gazetecilerin
domuz
leri
##lie
kısal
lerde
berat
odalar
gerçekçi
##cim
hedefliyor
yönetmeni
##ely
durumları
davada
hissi
pazarında
##osunun
kazanacak
irfan
maçları
170
diplomatik
##oluk
bela
##ebileceğini
##stal
##eller
konforlu
değişiyor
##mışlardır
türleri
boğaziçi
izzet
istisna
müsaade
kazım
kobi
tarama
nab
tram
ücretli
##ics
darp
boğazı
öğrendim
kimler
##´nden
şükrü
aklım
gelmiyor
sözlük
##olik
bağışı
listesine
mahallesi´nde
bulduk
karısı
##gas
damga
geçim
dayanarak
kapattı
akademi
açıklamasını
##sayı
##mektedirler
mân
yapılar
##âs
izi
termal
him
eğitimleri
nijer
zararı
kendim
aşkı
açacak
destekler
motivasyon
resimler
mahalli
ıcın
##bağ
akçak
korkusu
##ışın
seda
çıkarıyor
sıcaklığı
people
ky
faaliyete
ilçelerinde
güvence
##kun
ecevit
oturt
kalkıp
sürat
etmekten
tedavisinde
arayıp
yök
yurtdışında
güver
viy
andre
şikayetçi
bilmem
yönetimine
şov
uğram
inat
paydaş
piknik
daral
haksızlık
##amanın
sha
umur
##dirme
etkileyici
##çh
getirmeye
ilçemiz
sanatçısı
mühendisi
##ute
derdi
yakalama
kutup
##guluyor
bulunmamaktadır
doküman
gecede
eserin
keb
görüşlerini
konusunu
otobüsü
karakteri
reel
günkü
koşullarda
##desinde
faaliyetlerine
adımları
öğleden
cay
mutluluğunu
##ente
##46
sağlayarak
##ysanız
maçının
beklediği
ekibinin
danim
üreticiler
mesafede
yapısal
açılmış
ut
bulvarı
osmaniye
polisler
bunlarla
ferah
##dd
belirtiyor
alık
birlikleri
yapısını
kuram
ürettiği
dengeli
lea
alanların
başlarında
##´yı
geçilen
yollarla
dağları
filan
##48
oluşturma
ümraniye
görüşmeleri
şölen
teşh
muhte
ücretleri
orgeneral
yolla
geçmeden
köpeği
soruyu
zırhlı
devamında
##gh
artic
coğrafy
büyüy
##temiz
kazanıyor
mara
kurulmuştur
##ulduğu
pamukkale
##başka
çalan
anları
kente
narkotik
önünden
kararıyla
okudu
wol
ayırt
üretmek
eğitimler
eğitimde
ilâh
ünit
şefkat
koleji
manchester
çevresindeki
yürütme
##lanacağını
kot
ceset
anneler
geldiler
atıp
üssü
ford
bekley
hedefliyoruz
görülebilir
##ern
##meyle
tunus
ameliyatı
kamerası
bilinir
müdürleri
sığınma
sebz
hektar
avuç
alındığında
##aat
işlerin
kapılarını
devletler
teslimat
bölümünün
yürüdü
##tions
bütünü
ahlâ
bölümüne
harcan
zalim
mektubu
club
borçlanma
##amayan
işçinin
vedat
hibe
müzisyen
##iste
ltd
wi
kaldırmak
tedirgin
konfeder
hedefleyen
##osunda
yardımlaşma
asi
bordo
##mazsa
##laşıp
##ağına
iktidarı
##landıktan
##alın
meyv
söyleyebiliriz
havaalanı
##tiniz
uygur
nerde
##ento
hücum
##end
ağzı
yemekleri
##box
girişimci
##work
##ated
karşılaşacak
sıkıştır
tablosu
##32
aradı
elem
ikramiye
yakalamak
biriktir
çevirdi
yerlerini
topladı
üzgün
sıraya
girmeye
##laşmaya
dönümü
suyunu
bonser
saklı
öldüğü
##ýný
zavallı
yayıncılık
beykoz
many
sunuluyor
##stein
yayımladı
tetkik
mahkûm
kaldık
##mayarak
##cül
cesed
santim
sanıyor
##azi
##osuna
ova
adresine
kurallarına
##47
kuşku
##ârî
abdülham
seans
göstermeye
##oca
imzaladı
2021
hp
taraflar
doğrultuda
let
##anların
teâlâ
kapitalist
birimleri
çevresi
kırgız
kontenjan
parasını
selahattin
köye
##cas
ilahi
##ülecek
atmış
olaydan
toplantının
##sadı
imkânı
turnuvası
aldat
üreticisi
hortum
bulmuş
##rası
cild
##ým
azaldı
koordinatörü
hukuka
örnekler
tasarlanmış
##dele
dic
grand
ödev
yetkisi
acımasız
##ella
benzeyen
konumda
##liyordu
martin
gezin
iktidarın
patlayıcı
gökçe
çalışmasını
yeterlilik
ekonominin
grubunda
çalışanı
düşmanı
tencer
##siyet
ıh
devred
yemekler
girişimcilik
##tig
sû
dj
power
heyecanla
değirmen
korsan
istemek
gençlerbirliği
sağlığına
sust
sunulacak
anlaşılan
resmî
kelimesi
kayıtları
gücünün
hurda
##lich
sms
mevkiinde
bambaşka
##ue
karışım
konsey
sunuldu
##ani
lg
kuzu
nöbetçi
tarsus
takibi
atın
klip
yazılımı
ağırlığı
feda
##iver
itaat
##lıklarını
pank
sokaklarda
ej
lere
sağlamaya
binden
videoları
##reş
dağın
öğr
öneriler
##inceye
oyların
türden
elmas
hesaba
kalabalı
tik
##ücük
soyer
çarpan
than
elleri
açılır
şut
irlanda
##liğimizi
mars
tribün
fiyata
##ınızdan
görmüyor
gürkan
##anızı
sandı
hazırlamak
ziyaretinde
teorik
tutanak
yetim
denizde
chelsea
hizmetlerin
bilgin
bağışıklık
iktisat
##lemez
başvurular
##cial
seçin
aga
1991
sendikası
koşullar
sich
cla
##eddin
ettikten
eylemi
haberde
ceket
hib
##com
kışın
nedenleri
yerinin
faydası
beylikdüzü
zulüm
görünüyordu
animasyon
öğüt
üniversiteler
mezhep
esnada
arıtma
problemleri
çakmak
##diz
duru
aleyhine
read
golü
başlangıçta
dönmez
çağırı
lefko
##iyenin
belirtileri
yahud
tümüyle
abdurrahman
korumaya
yığın
##raş
##liğindeki
gerektiğinde
101
binasında
##lamayan
çifte
##rad
sporları
hisar
dos
oynayacak
cihazları
tolga
fam
##tiklerini
kurulunun
ilçemizde
sistemde
kahire
kesildi
ron
faydaları
muazzam
##hem
sizce
projelerin
yıllara
çocuklarına
erkeklerde
akı
kalmıştır
fedakar
bölümleri
bostan
yüzünde
now
gübre
dökül
atöly
telefonun
##gg
yazının
medip
enver
mesajlar
çalışıyorlar
imkanları
okudum
kalarak
##usundan
yakup
leke
toplantısına
değerlendirmek
yayınladığı
kullanın
galeri
bilek
suik
devri
olacaksınız
medipol
parf
105
inovasyon
olmamız
malik
sende
##iser
##rarı
şimdiki
geçmeye
mevs
yöntemler
dövüş
iddaa
birbirleriyle
çıkmaktadır
yürürlük
mensuplarının
riskli
durur
bölümünden
geçerlidir
promos
iddiaları
sıkıntısı
##meyiz
mutluluğu
görüşmek
boşalt
taraftarlar
cemiyeti
gelmedi
obama
karas
yapılacağını
diken
vermiyor
##larınca
ömrü
arayüz
pl
vermeyen
yerlerden
hatırlattı
uğrayan
gencin
gelenler
terap
adrese
bölgeleri
yetişen
koruyan
##koç
##lerinizde
potansiyeli
##onomi
muayen
##bilirler
öyleyse
paramet
188
##ikli
sağlanacak
hazırlama
danışma
nefis
kalabil
oral
meclist
hom
##33
toplayan
duydum
aramada
yorul
##taşı
leyla
yapacağınız
cihazın
tadi
modeller
tahmini
gezdir
kapsamındaki
##iliğini
kuruluşlar
getirip
eşitlik
ral
##akâr
dna
askerleri
sola
turnuv
##astik
mutabakat
çalışanlarının
promosyon
makedonya
vazif
##ilet
sunacak
kadı
moğ
##kes
temelinde
belediyeler
ziyaretçiler
başvuruda
dolaylı
##bü
yönü
rod
çözüme
listede
yazmaya
sorunlara
##ğinizi
##lediler
milletinin
mutluyum
birbirlerini
##uluğu
izah
olanağı
telif
görevinden
alarm
rabbim
mantıklı
temsilciler
gitme
alim
inen
kurallar
itti
##rey
düşüncesi
anon
uğradı
bildiğiniz
##landıra
##dia
elimden
kursları
madem
sağlandı
uzmanlık
##mıyoruz
matba
bitiş
doyur
dilerseniz
yürüyüşü
koyuyor
emzir
filiz
seh
siteye
##atlı
çözmek
fl
uzakta
istiyorlar
##´ndan
ia
##anıp
kupon
müteahh
bölgeden
nüfusun
##emedim
dakikalık
ezber
sağa
piyade
##ors
mucize
renkler
konsan
marat
konuşulan
##ifi
isterse
mülak
hist
yıldönümü
tahir
artacak
uygulamayı
##eff
##ruz
soruşturması
bağlar
##lic
xxx
şaşırtıcı
onayı
data
intikal
temizlen
şüphelinin
bölgesinin
mb
teması
##ısız
tabanc
onda
##ike
nedenlerle
varlıklar
kazak
duruşu
saz
hazin
riskini
pirinç
tutulması
sabancı
erhan
çözümleri
eroğlu
alkollü
tuzak
##ita
##our
##dekiler
dat
önerileri
sâ
##mine
kızları
yapımcı
tutulan
liderlik
kun
peşinden
gerçekleştirdik
yağışlı
ıslah
giderleri
dilekçe
akışı
süpür
gündemde
128
yenilg
saygılı
oylama
zekâ
öğrencilerine
avantajlı
bellek
intikam
##oker
esenyurt
karşılaşmanın
tatbikat
##nen
kaynağından
hakik
kahveren
savundu
edilmek
özenle
ov
barbar
görmesi
gereksinim
jüri
ekonomiye
toplandı
maaşı
yazarları
kurtardı
programını
##muştum
üretiminde
yapacağım
sony
mö
##sche
usd
##diğinizde
eksen
güçler
yonet
ımf
##çik
dikiş
##vri
otoyolu
latin
alevi
çeviri
olamaya
öldürdü
##t2
zo
trafiği
##mamıştır
##olsun
protokolü
adımlarla
işadam
sıralarda
##lanıyordu
anahtarı
prose
manev
thomas
farz
##78
pic
terey
semih
ekibin
ric
##ilmeli
##hoş
kema
işg
anısına
cevapları
gazetecilik
gölcük
atanan
kazakistan
açıkçası
gitar
##lemesini
edeceklerini
##ydım
lefkoşa
##ilmesinde
verilere
öngörülen
sayan
forması
psikiyat
gösterisi
güle
trafi
sami
##lıların
yargılama
##ımızla
yaptırmak
ekleyin
alg
mansur
sarıyer
minimum
alanlara
rüt
##dest
dönüşü
çizdi
sordum
zehra
##main
sürücüsünün
makar
##çık
##çen
##mese
##lali
uygulamasını
##riye
##95
anlaşılır
okulların
yürütül
zamandan
##ecekler
memleketi
hatice
metrelik
yumruk
turkey
muaf
siteniz
seyirci
1989
tarifleri
zahmet
isimlerin
tasavv
elit
##ero
usulü
etkilenen
almasını
gömlek
silahla
##hed
band
demokrasinin
boyunda
göstermiştir
##lıoğlu
yayılan
gruba
tedbirleri
bozukluğu
##38
filminin
nitelikte
##alar
duyduğunu
işkur
edrem
khk
takılan
anımsat
jim
bürün
og
hastanesinde
fiyatlarla
idrak
yaratık
##ica
müzi
psikolog
pomp
ıstanbul
kaybetmiş
huy
öldürülen
orjinal
renkleri
##âv
yüreğ
işver
sedat
milyona
deyince
göstermesi
ateşi
askerî
tahran
beye
##irdi
fransızca
işleyen
##yorlar
milan
haklarının
müsteşar
çiling
kavşak
karşısındaki
##ayın
kalmaya
devletinin
##cım
gönderme
eczan
sondaj
siteler
karp
taşımaktadır
döşeme
edremit
kullanacak
görüşleri
tanıyan
üretime
ayakları
gezen
batarya
durmak
askerlerin
prosedür
dükkân
fare
##sinden
compan
1950
araştırması
seg
tobb
yamaç
katman
mg
sürer
harcı
pompa
tems
çekilmiş
sahnede
vaj
araştırmacı
kıyamet
bed
eda
denizcilik
##arş
topuk
##ky
121
eyle
heves
şüpheliler
emniyetteki
arttığını
gurbet
güzelliği
dist
wer
baykal
turistlerin
bildiğimiz
küs
kaynaş
komedi
##değer
anladım
durmadan
##beyli
müşterek
##mamalıdır
##´nün
alanının
sigar
##sinler
telaş
uzmanları
çevresel
mücadeleye
sorununu
havası
##bire
##lock
baf
camisi
elveriş
##ens
dündar
##edek
##ikatür
videoyu
bahçelievler
üyeler
cim
karşılığını
berabere
başkanlığını
gelebilecek
kurarak
##oğulları
lakin
##dirler
##uly
isteriz
comp
ıntern
kilisesi
gençleri
insanlardan
yapılı
##now
adap
kumar
450
periyo
##dut
tutup
##bra
kamil
mesajında
hafifçe
tutku
bekler
##diğinizi
denetimi
demiryolu
sınıflandır
düşünme
çankırı
hazırlıkları
doktorlar
konusuna
başlangıcı
sağlığını
damg
karşılaştırma
##als
dra
olu
would
##heim
istey
yüzük
maya
##amızdan
cahil
karikatür
sıkıntılı
belirleyen
zap
dişi
beraat
açmış
taklit
##ced
##ano
sonuçlara
karakol
arıyorum
hül
kuruma
abla
##bistan
düzeltme
##verdi
yakınında
##eks
ihtis
past
nah
gitmesi
mich
##ns
almaz
temenn
merhabalar
sektörüne
otizm
duyuyoruz
atandı
hemşir
konuşmaların
media
kontrolden
öldürüldü
kullanışlı
kalka
yapmakta
otopsi
##ılda
put
tanınmış
there
formül
tarikat
##larımla
##leşmesi
köfte
uygulamada
indirimli
gelme
##gını
cehennem
imal
dileriz
arkadaşlarının
##naz
bulunmuyor
amca
when
çalışmaktadır
yöneten
##yınca
tarafın
sektöre
kazanarak
altan
ilimizde
otelin
tri
muhas
yarısını
bilginin
alınıp
söndürme
ellerinden
uzer
dondurma
##ılabilir
yılbaşı
##ille
##ileştir
hersek
içindir
alek
kontrollü
canını
##ilemez
saçları
kullanılamaz
##mut
atmaya
##lamanız
cup
##îler
##calan
karşıladı
mensubu
##ansa
konsolos
kızının
periy
imalatı
bastı
alandaki
delikanlı
ifadeler
##not
muhafız
##pir
##emiyorum
##cağın
kitabında
mısınız
senedir
yatıyor
hamil
çaplı
rüy
yapmaları
##gara
lou
##cını
adliye
gelecektir
bölücü
kazanın
##burnu
##hassa
tö
murad
uçağın
yapılabilecek
##bül
hayatlarını
cur
doğanın
spek
ölüme
durup
göreceğiz
##lamasıyla
üçlü
şarkısı
victor
##yonu
kullanılmıştır
uçan
##lass
##ây
nezdinde
küçül
olmayacaktır
turistler
##ies
gercek
yorgunluk
depart
lara
##sünü
##iyen
ekiplerin
silik
havuzu
grupta
bilhassa
##stem
kost
madur
artıra
karşılandı
taraftarı
##haber
sorar
nach
fox
hizmetlerinin
ısır
##ral
işçileri
ığ
savaşçı
##uta
hesabını
peter
kurtulmuş
yaklaşımı
verilmesini
molek
gerçeklik
senary
temp
sie
seçimlerin
belirlenemeyen
telefonda
##oksi
##98
akıntı
çorap
##anta
inceledi
ayından
kurulduğu
hükmü
inanan
bürosu
seyred
ayıp
gürültülü
##eceğimizi
vene
##ido
hemşire
kendimize
toprağı
tepkiler
kapıda
roket
sistemler
bd
erbaş
olabilirdi
vatandaşlarımıza
çağrısında
also
desteklen
verildiğini
kazandıran
##55
##otek
şal
mescid
öncülüğünde
çalışmalarla
oranını
halep
kararnam
hizmetini
kurabiye
çevrede
##liyiz
##ule
bakıp
isk
ayrılmış
lens
girişinde
deger
sunuyorum
tıklayarak
kamyonet
##lil
bildiren
önlenmesi
kavuştu
##cc
bırakılan
##iyes
presti
grubunun
lü
cha
inceleyen
tanımak
salın
çatlak
##zt
tüfe
##fü
üniversiteye
##çağ
dışa
fiyatlarının
yaşayacak
suçlama
düşüncelerini
ai
iddianamede
##bakan
havlu
vücudu
edilip
yanlarında
tezah
sensör
parlament
##ýnda
faaliyetlerinin
bill
müşterilerimize
kağıdı
karah
vef
tahr
ilm
jose
bilinci
ejder
yöre
sırbistan
geminin
yankı
değerlendirmelerde
wir
bık
maddesine
##ii
tayf
işlemini
##yük
beklentisi
filoz
ödülünü
degil
duyuyorum
##44
mektub
adından
mağduriyet
ikisinin
merce
nazik
devrimi
kullanılmış
##mayalım
sarhoş
belediyecilik
belirlenmiş
öcalan
kullanıcılara
##´ü
ellerine
vest
gerektirir
lacivertli
yapacağımız
karşılama
103
##oç
veliler
dinlemek
sunulmaktadır
çıkabilir
pur
dersin
##pu
muzaf
kaynagi
##tis
bulunduğumuz
emperyalist
186
##cao
harun
biriydi
##gaj
gündemine
mahmud
spot
yerlerinden
açısı
avlu
##71
kurallara
abar
kolaylık
les
tahrik
bulunmakta
##lasın
olacağım
kalça
ahlaki
talip
yapmalı
bira
##ırız
frekans
ülkelerinin
ağzına
mensuplarına
inşaatı
soyut
ayvalık
##viv
kızgın
merhum
sağlanır
yarg
salonda
haklarına
##kten
kolaylaş
sto
değerlendirmesi
hastanelere
şela
##diğimizi
bok
west
duyuyor
kibar
olaylara
bağlama
bariyer
külliy
yükü
kelebek
özelleştir
sahibine
gümüşhane
##try
bunca
gayri
dünyadan
##mın
yedir
inkâr
our
ts
mutsuz
pm
kıran
yöne
ordus
canavar
araçla
gündelik
haftaya
bölgelere
arttırmak
yaşını
##ree
köşesinde
duvara
tezahür
deme
broş
hırvat
öğrencilerimiz
tosun
bireyin
krallık
##memelidir
izler
dediğim
yapıt
##gem
mp3
##ston
5g
çıkarıldığı
##mazdı
satmak
öks
##ýk
saraç
görevliler
defned
hesabına
kapasiteli
amazon
gösterecek
toprakları
baha
okundu
hemşehriler
motif
pansiyon
kapıları
dinî
azaltmak
##izin
bakıma
aksak
alacağız
kaydıyla
liberal
ilçesinin
bağlan
şirketlerinin
##dra
yapmanın
çinli
##lamıyorum
düzeyi
hakimiyetini
##amm
maçına
esmer
silivri
bilan
##mışlardı
arkada
kanuni
hastalarda
gelmeden
kutusu
##yazı
müstak
yayını
kesilen
olmayabilir
etkileye
etmesine
katled
eşyaları
dolduran
topçu
ısınma
##deri
cazip
monte
birdenbire
##lıgı
last
oturduğu
mümin
ipad
ulaştığı
sevgiler
mercedes
hizmetin
koordine
once
filozof
##mama
mühür
##larý
seyhan
muzaffer
bazlı
görünümü
gizem
almanca
elimizde
yaklaştı
halife
##cen
seçer
ekranı
##ora
dönmüş
rena
##rettin
öksür
tutuklanarak
büyüklüğü
müfettiş
##hanesi
tekniği
değerinde
tt
ece
şirketinin
high
güçlerin
geçtikçe
ferhat
dönemlerinde
##mamı
doruk
bitirdi
hilmi
html
üstünlüğü
##zaman
##abe
çekmeye
kazayla
binada
##abi
üniversitenin
rahim
bav
burda
depremin
konuldu
kaan
cle
sitesine
çekimi
##mişler
##unk
namazının
zenginlik
niyaz
haydi
yenerek
venedik
cezaevinde
##lamakta
##vay
sele
yanık
işitme
mesleği
çalışıyordu
arist
yatırımı
##win
yil
##tayım
ölümünden
pazarda
sürek
##âtı
alanlarının
ığdır
dinlenme
masası
bulunuyordu
##ovic
geçmişe
##uch
pilav
atıf
kanalında
kurtarıldı
kada
ayrılma
asl
hiss
dönmesi
izinsiz
etapta
##atlar
çatısı
yumurt
pdy
two
aykut
taşeron
trafikte
ünite
102
iftira
süresinin
telefondan
dindar
##fice
bayındır
bakla
oteli
konv
uyguladığı
duygularını
yerleşik
download
hatırlatarak
how
##tayı
getirme
azalma
olmamak
yardı
fetih
soyk
tcmb
yüzlü
cumhurbaşkanımızın
kapsamına
kurmuş
gelirleri
gerçekleşmesi
miyim
sanatları
##ılıç
öncesine
ordusunun
yapmaktan
fıkra
üreticileri
dilediğiniz
olana
oturuyor
malez
annenin
meg
tutmaya
geliştirdiği
kategoride
yapılmalıdır
çalışmalarımızı
##ýl
etkile
anlamaya
karga
tatile
mahrum
##ürk
360
##idir
antibiy
umudu
##emektedir
resûl
verebil
doğaya
lamba
##üyoruz
ardında
planlı
unsuru
yansıyan
demirci
yaşandığını
yığı
kutluyorum
bulunuldu
yalın
yapıları
şüphelen
türki
##nü
##ehan
çocuklarla
soğu
sonuçlarının
çalıştay
##niz
them
smart
barışı
tanımı
terminal
devasa
bkz
yanaş
##dyo
özal
manastır
gazı
##mayınca
ateşe
markanın
##doğdu
büyümesi
neyin
sezona
yapılmak
cnn
casus
danimarka
vı
benziyor
yakışıklı
##delen
pala
yönetimin
pekiştir
mezarlığı
makinası
tartışmaya
kesti
niyetli
ilişkilerini
ihaleye
otelleri
kayısı
sırrı
presi
öldüren
sistemlerinin
ülkesinde
bt
kanallarından
dağılım
##ömer
maddelerin
cenk
diliyoruz
ifadelere
desteklemek
sabırsız
kıbrıslı
rutin
duyguları
lige
ebe
xvı
değişir
otomobilde
halis
yararlanmak
reaksiyon
denizin
gözünü
yakası
merve
eklenen
stop
dostum
##enize
##cis
çilingir
nokia
ekonomisinin
##fo
hayırsever
şahıslar
##sıra
israf
muhatap
yıldızlar
yakalanması
furkan
ayıran
ulaşmış
ödemesi
sansür
##adok
##donez
##eceğinden
uygundur
fizi
kampı
##ılmadan
opera
uzantı
##sb
büyükbaş
##âf
uygulamak
##fli
kullandıkları
saldırıları
erg
açıklamıştı
cezayir
düzenlenmesi
##lk
kuyum
mahrem
##iyetle
beraberindeki
kalor
##53
ölmüş
tasarlanan
##ülmüştür
kayboldu
bulabilir
üstlendiği
##ılmalı
savaşta
anas
görevlerini
##bih
babamın
sağlayıcı
karşılayacak
çete
iskele
baskısı
ıspanak
kayyum
pazarlık
kapandı
aranıyor
center
başkası
##gust
biş
deut
##ymış
takla
egemenlik
mıydı
bayramını
stadyum
##orth
tarafların
sloganıyla
amel
##row
manken
tasavvuf
##üste
dalında
mevlid
gerçeğe
##salar
instagram
yapmamız
jener
arasındadır
kademe
nicht
gülüms
derya
hedefler
cab
cüneyt
değerlerini
giderilmesi
tekel
kısır
yrd
şudur
##malarına
##nı
yıllardan
ultra
sesler
house
şeydir
tanışma
mır
otele
dara
##mişlerdir
kabiliyet
gelişmelerin
endonez
kursiyer
dayat
kaçakçılık
sikiş
işlemci
##era
##ild
108
zordur
engeller
##itab
susuz
##ğimi
gelişmekte
edebilmek
uçur
hayvanın
tasarrufu
karışımı
binin
##eç
evlerin
sulh
nör
turları
önems
faizi
taşkın
turuncu
under
okuyun
dikt
tuttur
sky
yarışmaya
yollardan
kullanımının
sarışın
medyanın
yazıp
##ladim
sabun
1987
stant
şayet
hemşer
gelirse
yalıtım
##kapı
öğretmenlerin
bölgeler
hedefe
mirası
çağlar
bulunmuştur
sapan
ülkü
vekalet
girişiminde
##ations
during
öğün
çiv
bankanın
ideolojik
dedektif
##seler
gerçekleri
aylar
havale
görevler
konteyner
##kinden
kötüye
##laştırılmış
team
tümü
okurken
tamamının
dahası
soykırım
azami
hediyeler
entegr
kahverengi
bürokrat
##cha
##âzım
hukukun
##ardı
##lenebilir
ınternational
##arch
##76
bayraklı
istendi
şiddete
tümör
neşeli
olmayacağını
alanyaspor
müşavir
müft
hükümlerine
iyisini
çelen
başkanının
yandı
yarımada
dolandırıcılık
alabilecek
talebe
incelemek
sınıfta
benzersiz
öğrenilen
garantisi
##ekt
buluşacak
altının
##ileceğini
fars
##uh
bib
mukad
into
##larınızla
yaptırma
şarkıları
##bis
##oliz
buralarda
ısıtma
saldırının
##rafa
vilay
fenerbahç
oyla
askıya
kültürünü
sayısına
gidiyoruz
âşık
hazırlayan
ilişkiye
yeşilyurt
hazırlanması
ehl
ımages
yararına
fotoğrafını
##fin
özdeş
kısıtlı
ayrılır
binaların
fail
alaş
eklenmiş
ayni
zaferi
##ikler
##park
##omen
ulaşması
##unacak
şarkılar
başlanan
hamdi
üretiminin
yapamaz
tahrip
hile
açılışını
ılık
şehzade
açığı
özelliklere
üçte
tereddüt
koştu
like
şaşırt
##istir
alanını
yönettiği
edince
aralıklarla
##onsol
##ıh
fethi
cop
mağlu
boğa
fiyatlarını
##osh
soğut
kompoz
topraklarda
pazara
başsağ
##liliğin
##´ni
çizim
reg
##laşa
yapıda
nüs
ekleme
golcü
keşmir
sorulara
medyadan
yanıtını
seçe
harik
erdoğan´ın
stüdyo
##zim
1500
hapse
farket
komit
yağma
sonucuna
##kaz
ilkeleri
sitesinin
ekranda
melih
seçimlere
isteyenlerin
finalde
bulmaya
cemiyet
##lanamaz
##aklık
mezuniyet
##esih
sürerken
##ildikten
öğrenciye
taziye
##meyerek
olabilmek
emrah
##ersek
nevi
yanıtı
london
başlıkları
veysel
yurtiçi
cent
ödemek
gold
teröristler
skandal
görülmesi
open
atölyesi
##îd
##side
koymuş
mühimmat
bayramda
yanımda
bırakır
faaliyeti
illerde
prenses
hulus
yakınlarına
araştırmada
sivri
müşterilerimizin
ilinde
##dırıcı
verecektir
boyama
sepet
imp
konusudur
##leyebil
##andan
çelişk
##ğimizi
sanatsal
aralığında
##ã¼
soruların
bahsede
teyit
ilgilenen
yolculuğuna
birisidir
parfüm
severek
maduro
atacak
rahip
havayolu
doların
##eck
##anılan
edilmez
elemanı
dilen
dosyaları
##tiğine
yurd
sum
dağıtı
arkadaşlarıyla
mağlubiyet
yenilenebilir
##siyum
standartları
ağzından
yolculuğu
sarımsak
vara
davul
yoğunlaş
çıkarmaya
##key
##artma
özetle
saldırılar
papaz
tesislerinde
##ture
kurtara
yapmasını
arttığı
oluşturmaktadır
masanın
bildiğim
##93
katına
hulusi
gösterdiğini
rahatça
zeybek
başkonsol
##liyim
karşılaşmada
eskisi
konuların
arkadaşımız
güveni
##madığımız
##ayi
ciğer
içeriye
kapadok
opt
biçiminde
##mamıştı
hareketler
hatları
kayda
eine
tarife
edenlerin
golle
üretimin
ihtisas
##hh
habertürk
anlamsız
açıkladığı
ısrarla
##esidir
aileye
sormak
afp
##ragon
odanın
katılımcılar
##ılış
versiyonu
ruhunu
##ical
kafasını
gecikme
öğretmenlik
malezya
başsağlığı
##ılırsa
kaide
yazımızda
king
yarışmada
dedikodu
oyu
inancı
dinleyen
anlayabil
anlaşmanın
kapıya
##96
yeteneği
prestij
belirlenir
kuaf
uyanık
pehlivan
yapıların
bilgisine
##latma
uyardı
kuruluşların
hristiyan
hükmünde
arız
some
meta
giydir
birbiriyle
balta
ölür
beklerken
tul
yapısına
caminin
##dükleri
broşür
cafe
mana
store
rakamlar
istikametine
dv
##aktif
anlaşıldı
##iden
diyebilirim
partiye
konserv
mantı
yardıma
##oğlunun
dinam
suikast
küçükbaş
kristal
koyar
optik
iflas
öğrendik
seviyesinin
##gıç
çetinkaya
deyişle
karpuz
bilimi
açılıyor
sergile
salt
patr
çerkez
kepez
##ecekti
maraş
aradığınız
hatası
haberimizde
boğul
tercihi
çocukluğ
ödenmesi
dokunul
namazını
drone
##meyip
##esco
haklarında
##teni
yöntemlerle
##lüğün
yanısıra
yıpran
şehitleri
yazarak
##âne
birliğinin
sözleriyle
gelinlik
kapıdan
bornova
bakıyordu
salladı
özb
ges
diya
##yıldı
##cd
hakkının
amaçlayan
öneme
atas
##zo
##oğa
yaralandığı
erbil
taner
kaçağı
juli
##iyorsa
240
filistinli
dizel
babanın
iyileşme
esra
filminde
dakikalar
duyu
##kesi
geçirilmesi
başıma
seçil
##lağı
denem
renault
##taraf
yoksulluk
##kam
ülkesine
pah
inek
seferinde
şapka
parke
cli
bitkiler
öğretmenliği
kuruluna
suçlarından
olmadığından
##lot
sahipliğinde
spora
gelirler
baþ
duvarı
durgun
##veti
sütun
##mü
ürdün
ilahiyat
yeterlidir
vezir
alınıyor
bagaj
giye
hareketsiz
satılıyor
gözüküyor
sper
önceleri
münih
toros
kapağı
produ
oscar
arkasındaki
##meyeceğini
##osist
office
suları
çabası
taşıyacak
enstitü
##oyun
darı
öğrenebilirsiniz
ağaçların
erdir
premier
##eğe
sevgisi
piyano
##ins
danıştay
levha
aramaya
sürücünün
komite
beklenmedik
atina
sanayic
birliğine
hiçbiri
özü
##urs
##lâh
nakled
oğlan
düşme
kurmaya
kapadokya
ash
atlı
emret
arkadaşının
uzunluğu
##ican
müftüsü
sempat
püskür
serü
kadrosunda
araçlarının
yurdu
sevinirim
sent
gidin
karşılaştığı
sandaly
karşınıza
antibiyotik
gereç
lezz
hülya
projesini
kosova
kaybede
flash
düşkün
şampiyonluğu
dalış
çayır
duruşma
değişiklikleri
müsait
sağlamış
gazetede
viyana
üstesinden
haklar
azaltı
xı
pv
##riz
çekilişi
anonim
müess
dy
barosu
çifti
paras
yanda
kulüpler
hamilelik
geçirmiş
beklenti
saint
hammad
mühendisleri
dengesini
derim
binalar
teset
gördükleri
üniversitede
##cht
geomet
tahamm
geceyi
müdürlüğünün
##gim
beklentileri
##omb
wordpress
nce
isimlerinden
##kılıç
ermenistan
##uluğ
açıklanacak
piyasalarda
çocuklarımıza
almaları
önerisi
tavr
devi
ırkçı
incelenmesi
kendiniz
hendek
universit
mevlana
alanlarına
##leyle
tamiri
##ech
dilde
lokanta
ciz
almakta
##cağında
kaybetmesi
oluşu
bulaşık
başarıyı
##ýz
kuvvetler
##şah
prag
kesici
güzeli
saygıyla
ebed
evini
rüşvet
##bî
mega
##taur
merkezlerinde
##landığında
oynamaya
1974
kavgaya
nispet
statü
esed
tutma
düştüğünü
golf
göt
futbolcunun
varank
diktatör
taviz
most
##ition
gayreti
başlarına
taşk
konuşmasının
##itli
konulara
##kek
tatbik
imparatorluk
##erson
bebeği
##cks
arıcı
şiddeti
sefa
sürüldü
imkânsız
ruhan
kaçakçı
uzunluğunda
maksadı
##ikar
mevkisinde
esteti
kenarına
##nur
necati
balığı
185
tersi
seçimin
geçtikten
gönderen
verimlilik
##cm
alıyorum
plaka
üstünlük
uzlaşma
##kab
önü
buca
ang
maçtan
apar
beyrut
etmekle
döküm
ete
##rov
##miye
amiral
kimseler
life
bedensel
çeyreğinde
kitabını
sürün
##ekistan
öğrenen
dec
surviv
unesco
dolgu
sakınca
gab
yanınızda
dağılımı
söyleyebilirim
##bahçe
baro
aletleri
safran
hastaya
fernan
olasılığı
işletmeler
##dığında
hastalıkların
süresini
##genin
##ider
alınırken
dönerek
##ıldım
peygamberimiz
cu
girişimciler
otomobili
düzenlemesi
fıfa
ailelerine
kahka
otomasyon
yönetmeliğin
bilirk
yandaş
deyim
ohal
paralar
##çesi
parametre
yıldönüm
kaptır
stady
ınternet
projelerini
##til
yapıyordu
çiçeği
olursanız
sorunlarına
yeraltı
bulunmadığını
bandırma
##ünüze
soruyor
söğ
şeylere
tugay
##layalım
titizlikle
spe
boylu
öğlen
kalmadan
ergin
tuncay
güvenle
ayrıntılar
insanlığa
isterken
yüksekliği
yatış
iyidir
arat
endonezya
##rî
uyuy
oluşacak
akça
nesli
##bn
1984
koşulu
ağacın
sinin
##tus
konuşul
çalışmış
işletmelerin
etkiliyor
nr
kenev
yüzbaşı
erciyes
haftalarda
görüntüleme
104
kütüphanesi
necip
ekosist
savunu
##seydi
kişilerden
kurulumu
busin
kullanmayı
sizlerde
muhaseb
##forma
guz
##tane
çolak
eşini
kaldırıp
içti
temelli
girne
alda
öldürmek
olalım
hissediyorum
başlatan
ödenecek
kültürünün
sabahın
##lüğünün
öğrencilerimizin
sanatçının
##94
bazda
videolar
garantili
ölümsüz
##´nı
##cağınızı
yes
başvuran
auch
sıkıcı
hün
eklendi
görkemli
hazırız
siyasî
birinden
karanfil
içerikli
davranışları
efe
caiz
ifadesinde
bakanlığından
yatırımların
kahkaha
ilkbahar
dizisinin
krizin
alacaklar
1988
sonsuza
tuttuğu
taşınması
affet
milletimize
##ifer
##ott
aliağa
sovyetler
çevrimiçi
konseri
seyreden
gizemli
maçlar
nesn
müeb
evlerde
toyo
##lenmeye
mücadelesini
ayakkab
basında
okuyor
pdf
yahya
şenlik
##asan
butonuna
tesadüf
##vantaj
istifade
sanatkar
kullanımını
ahlâk
sıçra
çekirde
sevinc
şişman
katılımcılara
oli
##liyorum
##lish
saldırıyı
kullanıyorum
ipuç
yılki
veriyordu
sac
kadim
tanıyor
tasfiye
yapmaz
ailem
koman
##leşti
##dio
yönüyle
olmam
zorunluluğu
hareketin
kıvr
##lenmektedir
miy
gaf
business
karabağ
##ceye
line
ailesiyle
görmezden
ıso
üş
deza
mama
##ılmaması
bazılarının
yaygınlaştır
ilker
##´lik
##well
konuma
1983
1986
kavgada
çarparak
yollarda
birbirimize
dram
özbekistan
sıla
cinsi
kuyru
avantajı
fırsatları
istanbullu
marş
yaylası
ortaklaşa
düşünmeye
tartışmalar
grip
yasemin
115
indirmek
europe
ları
girdik
verilerek
manuel
olunur
gl
nca
##atıyla
geçmişten
düşünülen
dokuma
tutu
kaldırıldığı
namus
yakının
yavaşça
esaslar
girdim
takımlarından
konumuna
tekerlekli
hut
yerle
sanatçılar
olmamış
ateşk
alınmasını
durumdur
çip
toplamak
antep
sessizce
liter
piz
metni
##unuzda
##dad
cahit
kurultay
devriye
pürüz
dezavantaj
dicle
ortamlarda
again
kaybettiğini
baktığı
çözünürlük
aygı
çıkmasını
##minin
##inek
süreleri
ihlas
vatandaşa
bakanlığın
şoförü
220
##bağa
emel
müebbet
yayınlanacak
ünü
katılımcıların
belgelen
kayıtsız
work
##hun
üretimini
köylüler
##lanmamış
##lû
tutarlı
lad
oğlunu
sorunlarının
oturmuş
olmalıydı
##ılmasında
evcil
1920
gerginlik
##zaj
##sev
106
şahısların
kaydır
çağırdı
##arl
sand
geçirdik
çoklu
kılıf
rön
sınırında
peşine
sırası
ncı
alin
çorlu
bağırdı
maj
görülecek
verdiğim
telefonları
yetiştirmek
belirsizlik
moğol
##çar
##üksel
değerinin
işlerine
zorunludur
gır
clo
çevresine
fikirleri
##ink
##iyak
kıza
konuşmacı
pekcan
sport
bang
siyasetin
siyaseti
senedi
oğuzhan
cenev
fazıl
geldiğimiz
kaçış
ödenen
hastaları
##iliğine
##hol
girerken
##ışık
##ross
mine
papa
buranın
##imizdeki
cömer
yavr
unsurları
kürsü
sulu
kulübe
akab
berber
suyla
onaylı
göndermek
erecek
operasyonlar
yazısında
kendilerinden
##ansta
manda
söyleniyor
öncülük
richard
##latır
kurmay
çevredek
sunmaya
kartları
şeylerden
konuşur
vat
##hret
sorusunu
##ll
kalmayacak
hamd
analist
yayına
uğurlandı
sabahı
oteller
uygulamasına
adaylarının
ihtiyaçlarına
istanbulda
psikoloji
sezgin
fiili
vida
paraya
ülkesinin
evlenme
tevfik
snap
gon
katal
söyleyeyim
cık
##ografik
hükümete
zanned
sürücüler
anton
tamer
bertaraf
hesapları
##eceğinin
yek
hazırladı
geleceğine
davetiye
sinek
bahane
kanuna
##kuş
nav
çıkararak
yapıcı
##layacağı
raporunda
çağlayan
zorunluluk
rakamları
istihda
müslim
taşınma
körfezi
kest
edileceği
dolardan
mamul
karadağ
rent
kapa
askerin
noktadan
##ekkil
##ersem
çeşidi
1985
##nâ
enes
iğren
maksat
duymak
ersin
dre
eşitliği
şebeke
müdahal
cezai
yuv
fevzi
toyota
teyz
fırında
anıms
görerek
hazırlıklarına
july
işlere
açabilir
##imine
##male
bayramın
aracına
mülakat
ailesini
sadakat
kişiyle
boşuna
dikey
##teb
nedense
alpar
kesen
içk
romanı
mudur
##leştirmek
dünkü
temyiz
duba
##ıltı
dilini
dut
run
düşerek
##lr
kuaför
eserlerin
câ
uçurum
##ümün
yöntemle
kaynaklarının
tonu
gösterme
years
müdahalelere
vereceğini
##lemizde
tarzda
planlıyor
yüksekokul
türkleri
müdürümüz
azalış
farklıdır
metaboliz
mücev
hayatım
asılı
derse
oynayacağı
grupların
merkezindeki
anayasal
yürüttü
##ifor
network
kadroya
bağcılar
kasten
dediğini
karayolları
iseniz
##ill
odtü
oynama
ılısk
numaraları
##eceğinizi
husu
restaur
müşterilerin
türkistan
tadilat
##ırsa
kontrolünü
brüksel
müteahhit
yazdım
paneli
kaynaklardan
atalay
toplamı
karşılayan
salgı
duygular
kılmak
wa
küme
uygulamaların
yastık
uğraşıyor
müdahalenin
devret
##ûd
şartlarına
##ulo
yakalanarak
yayında
olmasaydı
söyleyecek
babasını
dille
süsleme
araçtan
özelliğine
çiftin
görüşmesi
süreçleri
sempozyum
düşünceler
incelemede
bakanlığınca
kullanılmak
kaydederek
saate
unuttur
söğüt
##mayınız
ayrılmak
nüfusunun
##söz
oyunculuk
fragman
doğmuş
ihlali
persp
buyurdu
cömert
oynar
rega
tesettür
sorununun
arınç
kck
yenişehir
yansıtan
belgelerin
imzalandı
evre
masada
kiloda
istemiyoruz
##casına
şöhret
##ındak
bıça
arena
yiyen
elverişli
belirlediği
yapımında
altıncı
##ceğine
rela
yaptıra
##ius
yapacakları
bülteni
polik
özgüven
devral
makro
sunumu
inanın
lavab
##cesine
reyhan
günaydın
meşin
istekli
##abey
topluluğ
düşündür
kovan
gelişmelere
sertifikası
vaziyette
zıp
taktir
ulaşımı
yaşlarda
santra
verdiğiniz
demeden
yönetime
anlamını
şebekesi
kameralı
hastalığa
beceri
vücuda
##ision
modu
##ida
##rap
toprağın
çıkaracak
fant
##rent
hizmetlere
veritab
bâ
##ayıp
belirlenecek
##acağınız
dinledi
aracının
duyurusunda
bayramlaşma
bizlerin
##bilmesi
kazandırmak
mutfağı
anlatılan
##ekon
kalmıyor
aleyhis
kullanırken
kırıl
eller
silahı
bugünün
kev
jah
buzdolab
##ıldan
puanları
kullandığımız
istin
tava
üzücü
vâ
kararla
şehid
##çinin
ediniz
günay
gittiğ
altınordu
birliğiyle
ortalaması
gülümse
vıı
pençe
numune
green
merkezlerinden
##eden
savaşları
adi
dayanış
tekrardan
ssk
binasının
kaldırılarak
haberlere
elec
dama
##yıldız
yazım
ilacı
eyaletinde
sözleşmenin
##än
sağlaması
##yid
mobile
jun
jeff
müslüm
testleri
gidermek
olunan
nesillere
paraları
görüntülerde
##fakat
vermekteyiz
ekonomide
izo
surat
##amın
büyükelçi
arkaya
tanıdık
##leyeceğiz
iskenderun
belirleyici
fahri
hedefleniyor
sela
allahü
darbec
lip
üniversitelerin
muhtelif
erim
kadınla
resimli
##hı
isteyenlere
sürümü
bırakıyor
##lanmadan
madencilik
olabildiğince
kaşıkçı
rüzgarın
rekab
bakımlı
gerekenler
##anları
hırs
seferleri
bulunmuştu
daimi
tiş
şuur
başlarken
canan
charles
sorul
##hon
##larımda
gölbaşı
hası
seviyesini
ekleyerek
eskişehirspor
anlatarak
ürünlere
##yaya
arabanın
karıştırın
##ado
anıtı
##ebilirler
##emeyeceği
##iyeye
##isar
##lywood
suat
haberiniz
mode
zede
kamuoyunda
als
dernekler
kanalları
yağışı
görevde
vurgulandı
cevaplar
milyonu
şant
inkar
leon
kışkır
auto
geçiriyor
kurumlarının
yapmam
korur
miyiz
takımını
derinden
ülkelerinden
jak
elimde
düzenlemek
izlemeye
zinciri
kıskanç
akgün
şuanda
##umet
yargılanan
ettiren
##asia
##sor
akabinde
konuşurken
1982
kili
##ndan
##mamaktadır
enstr
ekleyip
metod
##ea
fert
bölümler
planlanıyor
duz
##ılmamış
vücutta
uzattı
##emeyiz
ağaçlar
oluşturacak
görülmüştür
bombalı
hükümlü
street
kaynakların
olmasıyla
özver
afiş
siste
istenmeyen
dublaj
hazırlandı
firmasının
almanız
düşünceleri
akut
koştur
havayol
tarayıcı
##keli
ekibimiz
habersiz
yolcular
biter
bonservis
##lıklara
geleneği
benimsem
edilmesinin
##yumu
ferdi
love
temelini
##ilmesiyle
kamuoyunun
ilerliyor
çiçekler
135
sınavına
mücadelesinde
öyküsü
##ıng
takımdan
##tain
şiiri
sait
küçüm
kaçmaya
diriliş
gözlerinin
##vern
bedelini
##uhan
önleme
yatar
asıllı
##100
##mark
unvanı
etkilerini
kalitede
söylenebilir
algor
çıktım
öğrencilerle
verimliliği
belediyemiz
görüşmelerde
tutmuş
arar
alparslan
özbek
yöntemiyle
##olitik
görüşmelerin
gereğini
öksüz
sessizlik
##db
işlenen
nazlı
kocası
geldiniz
##emeyeceğini
##âlet
pus
php
indirdi
##landırdı
belediyesi´nin
seyit
inis
##larız
değerlendirildi
ziyaretleri
tutuklanan
##maların
shar
orda
okyanus
devletlerin
dikkatleri
##gr
beklediklerini
davalı
eğitimine
fırsatta
##hz
mantığı
##elenen
##öken
arsen
sakal
##lendiğini
sım
fetullahçı
##düler
##enip
hacet
istediler
##büz
##entin
##oterapi
bbc
kumlu
sitemizden
##üd
##68
yoğur
##ladimir
atlat
##jet
geçişi
mazer
forumu
olmalarını
atik
gelişimine
projelere
yanal
defteri
belediyesine
hususlar
yaşlarında
parkur
yetkililerin
çıkınca
uçar
doğusunda
porta
watch
çember
zur
sıkıntıları
sük
atletizm
oktar
yönetimini
morguna
didim
başkaları
festivalin
dönemini
ülker
izlerken
icat
müteakip
vesileyle
##lise
dengesi
içim
acıklama
forex
##uer
arkası
usulsüz
ygs
ens
fikirler
esasları
markalar
zirveye
sembo
yardımcılığı
yayımladığı
çıkmasına
korunma
çocuğunun
karşılaşı
karatay
##ûs
##düklerini
tabaka
müdürlüğünden
karıştı
107
kazanması
yerlerin
araştırmacılar
kavşağı
deposu
tokyo
##ğınızı
şerbet
lale
##amıyoruz
ötesi
kongr
##leştirilmiş
gözüyle
değerlendirmede
telefonlar
##venin
larda
ergenekon
tm
##ents
projesinde
tahıl
other
firmalara
rumeli
başındaki
varoluş
erbakan
desi
anıldı
etmektir
eyy
sezonunun
kolunu
çıkmadı
eşyalar
girdiğini
##flix
sistemiyle
şehirlerde
deb
oh
azalarak
çığlık
burc
hükmet
sırp
hızıyla
berk
musul
mizah
şefi
hattında
noktalara
çimento
##stat
karton
etmişlerdir
sabri
hard
vez
yaşıyorum
kurye
##törü
sorulan
periyodik
saatlerinden
##lenecek
duydukları
diri
basının
##°c
kılınan
menemen
derb
zü
cephesi
başvurdu
##eceğimi
samsunspor
çalışanlarına
aydemir
##rok
katılıyor
##larıma
çalışanlara
##ceğiniz
küçükçekmece
bakı
yollara
ayık
özelliklerine
xp
cali
deneye
nemlendir
başör
gösteril
bürokras
silindir
takımına
gökçek
gürbüz
mahallenin
seçiminde
ırmak
yapacaklarını
okuldan
içerdiği
boris
meydanında
yürüyerek
patlı
week
futbolcusu
davacı
düşüşle
##ditasyon
##abilme
##rian
marx
stadyumu
kombine
kalori
good
kelimeleri
felç
başkalarına
yakışır
standard
bitmiş
deş
##´ten
topa
resep
başlayınca
peri
itibari
sindirim
internete
alacağınız
netflix
uslu
taşımacılığı
getirmiştir
gerisinde
zehirli
##dinin
sınırlarını
kaymakamlığı
nota
beka
riba
game
arpa
eczacı
##meyeceği
çarpması
##lamaktan
dinç
##ander
dinler
##landıran
vakıflar
kırp
hastalara
koruması
başh
brüt
müv
dağıtımı
##ments
fiber
yönetmenliğini
##iliğinin
çuval
##strat
kolye
açılışında
gezgin
iller
vereceğim
fotoğraflarını
işleyiş
başkanlarının
beyazlılar
bünyesindeki
##furt
piyasasında
geçmiştir
dolaşım
fırsatlar
##37
karışan
çalışmalarıyla
hoşuma
##dex
nevzat
belediyeye
tekme
vladimir
değiştirdi
aktarıldı
tıkanıklığı
sokağı
##pol
oluşması
monit
fizy
yaparlar
inceleyerek
beta
işlerde
zıt
azar
vefa
geçirerek
muamele
güzeldi
caner
tanıklık
##işimi
değerlendirmeleri
##ああああああああああああああああああああああああああああああああ
##raft
kulesi
selamlar
uygulamasının
atv
##latıcı
eldiven
##ðý
leb
##cap
gözyaşı
hida
bulunuyoruz
##nut
bakacak
kak
kullanıcının
##dığına
olurum
okuyup
ciddiye
##laşmanın
mezheb
tozu
##ign
##ði
sebepten
ihtimalle
nba
tüfeği
omz
tutacak
işlevsel
css
destekleri
imzalı
tarık
merm
halit
ikisini
gösteriş
senesinde
fotok
okumuş
vestel
milas
abd´nin
elemanları
ordunun
phot
##lamasına
görevlilerinin
ultr
umum
kasapoğlu
anlayışla
##gy
anasay
##bileceğiniz
timur
manzar
gerçekleştirecek
algorit
yad
##lektüel
olduğunca
##lüğünde
ülkemizdeki
huzuru
sonucunu
parlamenter
marj
cildi
nizam
kişilerde
##dilerde
istikrarlı
vik
ödenek
cumhuriyetin
obezite
uğraşan
kararda
##liliğinin
unuta
kervan
reddetti
##istler
bedelli
##inizdeki
baban
çelenk
kapsa
üyelerin
koşan
simgesi
##stro
kapsamı
fla
ayrılması
tahlil
müstakil
komiser
görüşler
##lamadan
yürümeye
sorumludur
ortasına
cisim
gerekiyorsa
##şin
quar
##geb
modelini
bakanlığına
pankart
kategoriler
ehli
noktayı
##esı
eklemek
takas
problemler
kişilerle
edilmeli
rahatsızlığı
operasyonlarda
##uzun
doğduğu
hakikaten
maçlarda
gücüyle
anlayan
nijerya
kaldırma
müfre
sembolü
nut
kararlılıkla
gerçekleştiği
hayatımda
alıyordu
geldikleri
tanımlanan
kılavuzu
cip
söylerken
stoper
seçmek
tutuş
cast
beyt
örgütlerinin
geliştirilmiş
şiirler
turgutlu
tanıdığı
nezak
sibel
kesintisi
sıv
çocuğunu
güçsüz
gm
restaurant
antlaşması
diplomat
kafası
vermem
kıyısında
kanama
##larin
utanç
##çıl
girme
iptali
##çılı
##cle
semin
ayrılarak
rekoru
filip
onca
dolma
alınacaktır
ödemiş
ödemeler
nedenini
annemin
kattı
mücevher
içmek
gelişimini
çöktü
angeles
##px
##gos
hobi
##cation
etkileşim
zamanların
etkiledi
davasında
bakanlığımız
##kov
fazladır
grubuna
desteklenmesi
saatlerce
edu
içeriyor
##ıncaya
##ülüğü
ölçe
memurları
paland
turkish
bilincinde
arabul
çilek
isimlerden
stratejisi
önümüzde
bush
tüketiciler
oluştuğu
yeteri
##bus
nazilli
survivor
paylaşılan
ibnü
mehmetçik
kafasına
##izde
mola
doğrudur
brezilyalı
konservatu
yasanın
view
tavrı
long
izleri
hos
650
aileden
şahsen
yaşarken
görmedim
ekibine
izleyebilirsiniz
##lıyız
favor
çaldı
gizlice
hakemler
geliştirmeye
esnafı
akçakoca
##65
state
yarıya
telef
gastr
serhat
donanımlı
yaşanacak
azdır
tramvay
takipçisi
sürdürmek
##amayacak
kalmasını
işçisi
##ged
##cüsü
yapabilmek
kuruluşunun
çekilmesi
vazife
month
magn
sporu
tum
oldugunu
götüren
mahkemenin
anlattığı
saltan
ezan
ente
üstünden
oynarken
kurumlara
##97
muhtarlar
oc
biriyle
##nis
açıklarında
muratpaşa
##apı
hepsine
ilçelerde
gidiyordu
değiştiren
mecliste
dersiniz
teklifini
old
başlangıc
ucunda
155
##ric
görüşlerine
cildin
satışlar
tahammül
ceyhan
anladı
medrese
kararname
başkasının
evlerinin
güce
fotoğrafçı
yazılarını
klasör
president
katli
faktörler
##stir
üçüncüsü
law
üstündeki
gücün
ideoloj
talihsiz
urfa
aff
vinç
kapatıldı
futbolu
götürür
pekmez
olduğunuzu
besinler
tül
görüşünü
yaşattı
mikrofon
ölümcül
yazlık
şahsiyet
rastgele
sürerek
sözlerle
company
sül
kolej
##teyim
isimlerini
amacına
abdest
perspektif
feci
hilal
follow
şenliği
kıyafetleri
ardına
erkeklere
kurutma
fiilen
tipik
herkesten
palandöken
uymayan
silikon
herşeyi
tamamıyla
yaralanma
azalır
##´´
piyango
düzene
aracını
olabilmektedir
hatalar
edı
halihaz
çoğunun
periyot
##teri
dahili
matbaa
olanın
##lide
barzan
esenler
otorit
kn
çalışın
uçtu
cust
kimliğini
bafra
lord
##leyelim
almayan
buluşması
ağaoğlu
çeyrekte
idareler
##izmin
mesa
tasarısı
klavye
yeryüzünde
anlatımı
oldugu
yaşındayken
açıklık
keşf
##maktadırlar
karataş
kardeşinin
seyirc
##lemesinin
ciro
geçirme
güvercin
mazbatasını
evinden
istir
yahudiler
yedik
kaybına
tasarımları
dolaşan
hazretleri
iletti
ilişkilerinin
antika
##lerimle
yks
118
indirme
takımında
hedeflerine
kuzeyindeki
alanlarını
geçmişti
katkıları
##iyorlardı
##rasya
boks
fırtın
##trol
paraş
ağaçları
dayanı
yayınevi
kırkpınar
imti
katkılar
bebekler
giydiği
farkla
üniversitesinde
zeytinburnu
cet
hataları
sıralamasında
paylaşımda
##tun
kulağı
iyileştirme
gazetesinin
halkımız
tuzlu
ulaşma
durumdadır
kalsiyum
##ardo
hastanenin
nurettin
fun
##bab
##brid
anlaşılıyor
demokrasiye
işlenmiş
yılındaki
##chi
##gön
##cem
çıkarır
battal
dökümü
dizide
şaban
hikayeleri
takımımız
tarhan
taşları
müziğin
artırarak
provok
anımsatan
bid
uykusuz
oluşmuş
dekoratif
söylemeye
radyasyon
arazide
talebini
kesil
titreş
sağlanıyor
çalışıp
hepat
nemli
##usundaki
tefsir
şehidin
çel
baran
farklılıklar
durağı
güzellikleri
kullanıcılarına
sebebiyet
ear
çıkarıl
uygulanabilir
işlevi
ailelere
adaya
eşine
alamaz
##tenin
azgın
ilkesi
rahmetli
vasıf
eylemleri
audi
##fs
mahsus
##mn
güneyinde
hızlıca
araçlarını
büyümeye
damgasını
bru
finland
yatırma
açıklan
arkeoloji
bülbül
gösterileri
##lamasını
hekimi
çabaları
##dom
hazreti
işimiz
##ters
vatandaşlık
sürdürülen
diyetisyen
açmaya
##field
torunu
örüm
brun
##skop
zannet
öldüğünü
gücümüz
##ord
yapımına
takibe
bakkal
ödemeleri
dönme
tutuksuz
delege
suçlar
##sünüz
trip
listesini
huzurunda
yaşatmak
##31
ödüllü
wik
##tici
tertip
##ecilik
giderler
başkanlığının
üretilmiş
savcısı
katan
getirmesi
tanıtmak
vuruşunda
izlenen
##eliği
kirliliği
anat
##ezz
telsiz
şevket
getirdiğini
nüfuz
##lendirmek
üyelerinden
dualar
kontrolünde
oyununu
kolester
##çilerinin
diploma
şahsi
anlıyor
büyükelçiliği
teknolojiyi
##bola
esnafın
operasyonları
alışverişinde
hammadde
girmeden
##banı
cinayeti
duydu
işlerinde
medikal
norm
personelim
burjuva
milyondan
lpg
adresinde
koşarak
etmeli
emekçi
kullanıcısı
kürtler
ağzını
dinleyic
doktoru
düzenlenmiş
##larınızdan
dizisinde
uyarısında
yöner
öğe
işleminin
taşıdığını
haberini
kuk
ped
şahsı
turgay
üretken
ekşi
olym
incelemeye
gülümsem
hareketlilik
halim
ünifor
içlerinde
asistan
bittikten
taburcu
ortod
well
inisiyat
projesine
##its
kurulunda
yasama
##liliğe
bağdaş
şimdilerde
##onomik
gölet
##ınarı
vermekte
yörük
kapısına
reviz
kaplum
performansını
babalar
acente
gönülden
tutuklama
iranlı
##iro
katarak
dolayısı
büyüdü
colle
fıkıh
yatağa
##ırtı
bugünden
##ladığım
literatür
##39
düşünüyordu
bulunabilir
açıklamasına
##ctor
üretimine
##ebileceğiniz
etkinliğin
sunulması
medeni
mikrop
kadromuz
##ramanı
beko
sürdüğünü
bakıcı
bei
ekipmanları
loto
verilebilir
gelelim
yukarıya
hidayet
tk
siyasete
segment
raporları
adaylığı
gösterildi
çıktığında
salihli
saçlı
md
anlaşılmaktadır
koruyor
şampu
sığır
bugünlerde
lösem
##lanta
##ally
şaramp
##ımlı
sıy
yaratıyor
özlü
##ucak
##memizi
fişek
##duğuna
##acağımız
firmalarının
##labilmesi
hollywood
alabilmek
hazar
öldürme
şunlar
##cılara
bağımlılık
bucak
kontrolünden
memnuniyetini
##ingen
muva
malzemelerin
alacağını
ille
##sky
could
##able
samimiyet
benimsen
ruhsatsız
zat
yapmıyor
gemlik
güçlükle
umud
kullanması
ayaz
system
işadamı
metot
bileşik
konvoy
rövan
kapatma
konuğu
anlayışıyla
edilebilecek
batır
çıtır
##eto
şansını
sancaktepe
kabullen
##izasyon
kola
##mana
tour
uğradığı
ekimi
orası
parasal
antioksi
avrasya
malta
soner
ortama
fahrettin
bayağı
##ware
kraliçe
tedavisinin
artıran
inceleyebilirsiniz
merkel
yakını
kızını
##reyi
yaparım
ilik
üçgen
tasdik
##85
tuğgeneral
dus
parayla
ayrımcılık
darbeci
bırakmıyor
köpük
tuşuna
köyüne
iyim
hayvanlara
rıd
tahakk
cevdet
tufan
##rağı
sönmez
istiyorsunuz
belle
gözünde
baskılı
##emey
şirkete
veh
miktarını
operasyonunda
##ier
##severler
şti
duruşmada
geliştiren
saniyede
emisyon
##cum
merkezinden
yakınlarının
##iyetinde
yalvar
##emezsiniz
##labiliyor
derecesi
çene
##uter
kavak
über
tamamlayarak
##ğ
##ülürken
geçirmeye
ifa
cn
isteğe
abonelik
kireç
1979
hukukçu
dinsel
izlediği
vay
noktalar
evdeki
saldırdı
üzerimize
yönetimler
etmediği
lirayı
tazminatı
tüketicilerin
gözyaşları
yatırımcılar
mutluluğ
sığınak
uzaklık
bıçakla
yelek
seçenekler
odaklan
yapılanması
komando
pahasına
lozan
adresini
faci
element
bahçesine
kesik
yürürken
üniversitemiz
sokaklar
azaltılması
deneyin
markaların
işletmeleri
kullanabilir
başladığında
oluşturmaya
karasu
basarak
avukatlar
yükümlül
##itim
font
##liliğine
bölümün
saatten
değişmez
antioksidan
iddialar
yüksektir
gaziosman
ünitesi
toplantıları
gelmesiyle
##oskop
bulunul
filo
kurduk
dosyalar
anor
rant
##alıyor
kürek
umutsuz
dilinde
ihalesi
kolesterol
tanıttı
halkını
##estezi
kreş
yetmiş
koşullarına
national
##enlerin
doğuştan
sas
##larımdan
geçme
##rın
##eşehir
hitler
başarısını
temalı
üf
aradaki
amaçları
vural
battan
dökülen
admin
kütle
peyzaj
taşıyıcı
bavul
katolik
öfkeli
##otu
alınabilir
bindir
yün
terbiye
otomobile
vurarak
arkadas
sanayii
##ağının
sabi
##lemenin
##ıy
sonuçlandı
engelleme
projemiz
custom
getirilmiş
çekmiş
##die
##zım
yargıç
111
kıvam
finali
tamamlamak
##ping
fiyatlı
iznik
yoldaş
way
buydu
bakınca
çalışmasına
uğramış
gidiyorum
ilgiyle
edilmeye
##âǿ
esirg
kahramanı
bad
bala
kalmayı
müdahalede
tesir
araçlara
sıh
mesajını
ajansıdır
yanak
fm
tercüman
##ihisar
##kit
huzursuz
rezil
##ology
##rif
denemek
yetkilisi
örtülü
dokunuş
eğitimli
##mamalı
##mayacağım
sanatın
besi
fenomen
tamamlamış
yasadışı
##inist
depremi
parçacık
electr
diyenler
skorla
çıkmadan
##açık
##sia
yapabiliriz
imt
zül
##gc
olacaklar
bulması
burnu
vurul
belirte
fikrini
birisinin
bildiri
bakıyorum
savur
##tia
ayarlar
nom
##kol
çerez
ayrımı
telgraf
taşındı
##mith
anten
lisanslı
müftü
ilçedeki
başkasına
geçildi
bırakmış
##ost
##lm
hikayesini
açın
bütçesi
drama
çalışmasının
eşek
plajı
##lenmesini
##latmak
kamerasına
çark
esp
ederdi
##mân
##cılığın
bulantı
##crip
içimde
getirdiler
slay
devletimizin
sıralar
evrenin
##mahal
##mesı
kapılar
işlemlerinde
sınırlandır
izniyle
##vanta
kamuya
alınmak
yarışmasında
yeğen
sürdürdüğü
reflek
hükümler
##bos
dekar
hanıme
yatırımcıların
bütünüyle
ilyas
##latör
muhit
gününden
buluşuyor
çağın
psikoloj
bağırı
babasına
bark
boncuk
erzurumspor
hisarcık
vad
##yek
konsantr
adalar
soktu
sd
##inecek
söndürüldü
şiddetin
işletmesi
sermayenin
##atları
kendimiz
guzel
kızların
##lığınız
saklama
sümer
arabası
##cit
denizden
kaynar
##fore
duyduğum
paslanmaz
olmayacağı
favori
pier
ören
yapısının
doktorların
memiş
etmemek
programlarına
krom
savaştan
oluşumu
ahiret
##board
tertemiz
maş
ilaçların
macron
uçakla
konuşmayı
ağabeyi
kaka
govern
butik
##hidrat
genelindeki
dalgıç
operasyonla
anna
kullanılmaya
##vit
soran
ütü
ilkel
koray
kardiy
söylüyordu
olabilirler
bölgesinden
##kanlı
que
aydınla
yanma
günlerin
´nin
##sist
hocamız
havz
özge
dantel
bulamaz
verebilecek
##üzel
sports
kazanmaya
eşk
oğulları
barzani
öğrendi
sonuçların
şirketimiz
yapmadı
kabl
gelinen
sincan
birliğini
içsel
protez
##dos
dönüşümü
yaşamına
deve
##meyince
çizerek
köpeğin
##çiliği
döneminden
bılgı
720
vermesini
tasvir
bayern
pozisyonda
silahlar
gerekçesi
yarıyıl
öngören
mont
severler
cit
tümünü
yürekten
muhafazakar
##meliyim
sağlayabilirsiniz
fuh
personelinin
hanedan
dala
gitmişti
asma
izleyici
istekleri
akrep
iğrenç
fasul
elektron
tempo
karşınızda
ocakları
zarara
fazilet
yürüme
sağlıyoruz
şarampole
tadına
düs
renkte
ederseniz
arkeolojik
pazarına
kesilmiş
##ağaç
onlarda
175
bahçeşehir
sitelerinde
bekledi
##günü
tembel
ther
komuta
atılım
##nat
##py
yaygınlaş
sağladığını
hoşnut
sürenin
ilişkilendir
yetiştirme
belirlenmiştir
zarfında
yaparız
english
rakamı
cihazların
sünger
öngörülüyor
lokal
cür
değişikliğe
topraklar
dilin
kurtuldu
şirketlere
değerlerin
cenevre
resi
fem
bmw
kampüs
acilen
##ved
odağı
talimatıyla
##nia
garson
mahkemede
alfab
kub
ılıca
abdülhamid
##ganın
makarna
belediyelerin
tesi
tanıya
zirvede
karınca
birliktelik
tamamlanmış
ülkücü
dönerken
gazişehir
##şeti
##42
techn
patlıcan
üretmeye
takvimi
göndererek
sınırına
börek
kısmi
kadınlardan
adamlarının
cerrahisi
madeni
rapora
##yanı
değerleme
yedinci
gazetesinde
econom
550
yönlendirme
gelişmesine
atlas
köyleri
çalıştıkları
azı
109
hissettim
seferi
puanlık
taşlar
garaj
idris
içermektedir
bulunup
olmakta
katılması
festivalde
bilemiyorum
müdürlüğünce
##raya
##esan
kask
iyimser
tuğla
askere
onurlu
başarının
##het
parklar
biyoloji
örgüte
##mezler
olunması
kaçmak
##sah
##def
ithalatı
##ayız
geçmesine
vatandaşlardan
ötv
görünmüyor
etrafındaki
##taz
##88
##hit
bozan
katta
kazayı
verebilirsiniz
##formasyon
hazırlanmıştır
maliyetleri
sırket
##ümen
hâlinde
kimisi
zab
temmuz´da
gittiğimiz
##ûmet
parlamentosu
tişört
##özü
metn
bulunurken
seren
haftadır
atay
kuşlar
ikindi
sör
duyuruldu
lacivertliler
civarı
sanıklar
kırdı
yaşanmış
rıdvan
sinem
paş
pel
bırakacak
yayınlar
mırıldan
büyüktür
ajan
beyannam
mürekk
attık
esasen
##ürek
kesmek
hayalet
##emon
düşündüğü
kru
arg
bırakılması
konsoli
ruhani
menajer
istina
senatör
dayanak
dileyen
ettirmek
seslendi
jer
derneğin
işlediği
kump
mira
ucuza
hoşuna
barınak
çağrıda
personele
irtibata
mekanizma
##acağına
aren
terapi
bik
##kül
##ınızdaki
ivme
pizza
yarısından
olmamasına
düşünmüş
artmasına
oyununda
gökyüzü
ulusoy
üreme
fuarda
ölçme
yanımızda
merkezini
değiştirilmesi
iplik
##lediğini
varlıkları
altyapısı
lut
kazanmıştır
teröristin
##cinsel
geciktir
yenilenen
marif
taar
taktirde
mekanı
nezaket
##vest
necdet
öğrenmeye
avukatları
##bilim
yürüyor
buzdolabı
askerlerinin
shop
hande
girmiştir
edileceğini
çoğunu
hizmetlerinden
##lex
##rüt
mezarlık
düşünüp
takıldı
yuz
seferde
jor
##şir
tutarında
trab
kalkar
şarttır
önerilen
karbonhidrat
kirlet
116
insansız
yükseklik
oranına
adanın
bulduğunu
biliyordum
sendromu
##nın
tapına
aksam
mahir
organları
yaklaşıyor
çatışmalar
##iraj
bekliyordu
yapılmadı
lavabo
abdulkadir
konuşmasına
envan
aradığı
üstlenen
dubai
##ihan
kentteki
oluyorlar
netanya
hastalıklara
fotokop
##oş
köpekler
##asyonel
karıştığı
##´si
kaydedilen
koltu
takımla
yaşananlar
yanıtlayan
kerk
iadesi
evlere
arkadaşlarına
##ikasyon
toplantılar
anki
süslü
music
tutulur
satıldı
kampanyaya
bern
tecrübesi
müvekkil
aramalarda
senede
tavşan
mecra
aktarmak
altındağ
##iyeri
arçelik
tüneli
fıstık
anlaşmaz
alamayan
##tap
fiyatının
kaybetmeden
kesip
bayi
kaçta
sarma
kullanıcılarının
puana
sabiha
bilmiyoruz
main
anlaşılması
işlemin
yorumunuz
iltihap
kurtarılamadı
söylediğini
başlatı
ediyorsunuz
şöval
hizmetinde
atılmış
dolaşıyor
##layabilecek
işbirlik
verilecektir
pencereden
büyüyor
yaşadım
karşılaşmayı
veriyorlar
uzunluk
görenler
eğilimi
vatandaşımız
anaokulu
sevgililer
##sık
##ilirse
eğitimden
arık
##eliler
temmuzda
petek
dop
vizyona
ekin
##oksit
ulaştığını
getiri
yunanlı
##uza
sevdim
uygulayan
atılması
##larlar
olsam
anlayışını
lans
alalım
kabine
fonları
ulaşıyor
aklınıza
aralarındaki
yudum
efeler
güçlendirmek
bolca
klini
firmaya
azınlık
ekranlarında
etkileyecek
andıran
soma
##buğ
etmesinin
##masındaki
##atay
götürmek
başp
etkisinin
saran
övgü
okullara
etiketi
##memi
riy
algılama
nay
dostlar
platformda
secde
fâ
gn
getirildiği
belirler
##ebilmektedir
geldikten
gecelik
hoşgörü
savunuyor
kolaydır
gedik
meselâ
##laha
ayarları
selin
üvey
hepatit
mıl
kef
rat
vaad
##eria
birikimi
periş
maf
ekolojik
çıkacaktır
tesisin
elleriyle
koyul
sentetik
serisinin
arayın
beklentilerini
şartlarını
kiralik
gitmeden
kâğı
çıt
harekât
##iyorsun
hırvatistan
falcao
yemeğe
koşullarında
karşılıyor
aklın
##kor
bıyık
küçücük
bölgelerine
stabil
bebeğ
kosgeb
fiyatlarında
sonrada
bulundular
zara
yazılır
##dığımda
sayfaları
kazanılan
##emedik
##saydı
camiye
adaları
manada
moza
hürmet
yaralıların
beklediğini
entelektüel
getirilmiştir
##ä±n
duvarları
birincilik
edersiniz
yemiş
harici
pompe
scrip
gündeminde
kurumlarında
gore
reyting
august
##râ
oranın
çıktıktan
britanya
hastalığının
topraklarında
kamusal
itü
duyduklarını
evinizde
##anızda
manyetik
sanmıyorum
##ila
##chan
neşe
mutfakta
güvende
ihtiyacının
dağıttı
antak
palet
hükûmet
yaşadığım
alınmasına
seyyid
dayanılarak
eleştiren
sınıfa
çıkartı
halihazırda
arzusu
istinaden
öğretmenin
doldu
araçlarda
hocası
##tent
only
nazaran
ismiyle
miss
kırgızistan
seviyesinden
azaltır
##girt
düzeye
##dýr
pon
kırsalında
tarihlerde
unsurlar
almıyor
yolların
gelse
hareketinin
değerlere
raporuna
almadı
kayıtlara
tartışmanın
cy
henry
zayıflama
çıkarın
##ox
kaynaklarını
124
sokaklara
kostüm
planlar
ağırladı
kuveyt
yapılmalı
##ralı
propagandası
##pas
vilayet
kadınlarla
menteş
uçakları
145
isteniyor
boyutta
önleyici
çekerken
##alılar
gence
##sikl
soygun
hazırlığı
minib
toplanması
1981
bilirsiniz
enstrüman
daniel
tapınak
tre
##beyaz
kuşk
fincan
dayandır
kerkük
olanakları
akbank
##kiye
karanlıkta
terfi
seçerek
ismin
konuşmaları
saldırısına
dönecek
gezerek
verelim
##eter
öncesinden
##diyse
bilgili
prat
kate
tahrib
kumandan
akımı
##ilemeyen
destekliyor
##arız
##ance
çıldır
açtık
adapazarı
sızdır
tamamına
white
gökçen
ilaçları
desteklenen
geçebilirsiniz
press
##´la
kâfir
ortaöğretim
felsefesi
sevim
severim
ihtiyacım
##mazsınız
türkiye´yi
vadi
yaşanabilir
sorunlu
denklem
kont
hazırladık
kesiş
görüştük
pişirin
eşcinsel
kürk
yaratma
sürücülerin
isteyerek
##vari
##´ndeki
kısmet
ılıskın
akşamları
gözlü
lüz
günümüzün
127
dayı
##inasyon
şunlardır
futbolcuların
##vanya
masaüstü
toplayıp
kokulu
##lisin
tahs
pf
yaşındayım
hayalini
metreküp
basını
cav
##cr
anestezi
notlar
##faka
açıldığı
restore
mermi
katmak
tayland
##usan
bedir
torbalı
kategorisi
sistematik
beldesi
ulaşabilir
maksadıyla
katacak
##lap
başkonsolos
servisleri
patri
azalması
barın
meal
puandan
hediyesi
mike
teröre
liderleri
kullandığınız
anak
geldiklerini
block
contin
##ligi
dayanmaktadır
pozisyonu
finlandiya
yüzleş
tutumu
dağıtıldı
saçlarını
bakma
alevler
elin
düşecek
katılacağı
kaybederken
sonraları
##bekir
geçeceği
zeker
yapılışı
yöneticilerinin
yayınlandığında
eğr
düşünmüyorum
##lular
naci
şeklini
bağlanan
vel
varil
eziyet
taraftarları
##dalı
##tırdı
bütünleş
üzerlerine
kazaya
bağlamında
selen
esma
davranışlar
sahadan
yararı
tahminleri
görevinde
bim
bekar
görünümlü
sperm
hissetti
incelemeler
ntv
thro
doktorun
dp
kabile
açıklamayı
ilgilidir
seneye
turda
adayın
food
birilerinin
tüik
otorite
bulunduran
anlaştı
aktüel
viet
heye
limited
balkanlar
sularında
havayı
dönümünde
dokusu
faşist
istiyordum
ly
okuduğu
##hil
south
##ain
hakkın
borçlar
ilmi
gov
imtiyaz
biga
doğruya
color
birçoğu
tavsiyeler
114
modelinin
##emiyoruz
hızını
muammer
becerileri
ilin
##mıştık
korunmak
1915
önderliğinde
tabanı
sivilce
olmadığının
anam
##ayip
vesilesiyle
##ımızdaki
özelleştirme
##ânın
1975
bulgur
göbek
modellerini
##gm
konuşmalar
yetkililerden
sahasına
##yonun
sıkışan
wall
ersun
anlatacak
sandığı
müşterileri
büyükkılıç
teknolojiye
sektöründeki
sürt
##cs
işbu
çırpın
##mahalle
##less
5000
karşılaşıyor
hacettepe
antrenörü
hazırlamış
kuvvetlerinin
noel
hüsnü
sonlarında
sızıntı
bütünlüğü
abdülkadir
##vas
##entop
arabayı
sosyo
hacim
oluşturarak
balcı
bayramlar
altındadır
alınmıştı
baca
durduğu
sevgiyle
1919
soz
##ünüzde
hemşeriler
kaymakamlık
##landım
eleştiriler
lâzım
ölümden
azaltma
gıdalar
kaftan
uza
mutluyuz
kapatılması
kavan
yörün
manip
netanyahu
##tırmak
##ızın
oluşabilecek
kısmından
olmayıp
yaratır
gösterebilir
motive
emsal
duyunca
katalog
alacakları
arttırma
elime
apartmanın
etrafı
yitiren
çalışılan
yanıma
##yana
radar
çocuklarımızı
##hor
rolünü
hoparl
kaynağında
kalsın
pra
muhalefetin
urla
golden
keç
öğrencilerimize
tasarımcı
istemiyle
university
tefek
eu
almasına
sürey
uzlaş
karagöz
telafi
şahane
ayağını
##ool
ötesine
yerleştirilen
yıka
yoga
insanlarda
deniyor
juven
126
bahadır
yurda
diyebil
##uspor
attım
çeviren
mevz
alışkanlığı
üzerini
1973
hayvanı
##gama
salim
yaptırılan
vermeyecek
fiyatların
doluluk
fast
##ped
##ülmüştü
vr
malaz
aradım
1930
bahçede
ankara´da
koyma
fiat
mısın
sahnesi
uygunluk
fc
vapur
##leyeceği
biletleri
sevinci
uykuya
okuduğum
gerçekleştirilmesi
kalmamış
ıb
molekül
formula
yerleşen
trablus
annesini
dibine
başımıza
bölümden
belirtiler
sempozyumu
kolaylığı
sci
next
cik
kürtçe
konulardan
sorusunun
anlatırken
serüven
1978
yolcuların
against
yapılandırma
verirler
taslak
katkılarıyla
aşamasına
teknolojiler
hiyer
bloom
kurup
oluyorum
##ices
akademisyenler
dünyasını
##hl
dvd
hallerde
çocuğum
teras
iskelet
bahan
dedir
düşünmeden
kapatmak
önlemi
döşen
karşılanması
çıkarsa
bonusu
erik
tsi
yüksekova
soyunma
geliştirerek
##fl
zammı
##şat
faaliyetlerin
kampa
cinsinden
kraliyet
değerlerine
maria
any
görünmez
ürüne
ürper
##aşa
paran
ال
##ual
##zei
##amıyordu
olmaktır
dağıtıl
binasına
miktarının
gösterdikleri
123
disp
anast
tohumu
sinde
arnavutluk
ansikl
atakum
sokul
duyduk
fantez
alo
uğray
kararında
iradesi
terzi
fis
##uku
açıklamanın
##iyorduk
iyiye
keyifle
tahliy
listeye
santimet
dönmeye
##lerinizle
azim
fî
##gut
##74
kurumuna
açıklanması
beach
british
china
küba
incelemesi
etmeyecek
beklemeye
calı
portalı
arsenal
kirp
nişanlı
hisseder
##mor
örümcek
meclise
ulaşacak
iletişimi
lob
darıca
çıkarları
kaynaklanıyor
yiyecekler
lokomo
box
temsilcilerinin
yerleşti
müslümanlara
kuralı
operasyonel
biraraya
nedenlerden
##ülüp
çit
geceler
##91
resulullah
birleşme
coş
fabrikasında
230
videoda
##tag
rövanş
andır
yenimahalle
programlama
refakat
rehin
dif
yararlanarak
kuşu
before
##biç
1977
road
kullanmış
gezisi
##dünüz
gerekirken
finalinde
korkuyor
pekin
nic
kullandır
artmış
hara
oturur
çiğdem
ilka
nick
şentop
vakıfbank
gerektiğinin
hastalığına
cıa
##saf
article
##uluğunu
benims
bişey
yonetım
jones
try
##lerın
##çıların
gole
işçilik
koleksiyonu
beyazıt
##canın
galeriler
araçlarla
manzarası
davr
antakya
ayran
##duh
espr
senato
çıktılar
hapishane
ayları
işyerinde
soyadı
sıva
##cing
barda
söylüyorlar
kampanyaları
önyar
iyiydi
tüketicinin
juan
stal
##bilirdi
kooperatifi
gerekecek
tablos
ego
##mesidir
kademeli
##sive
ıntel
yy
öğrenmiş
sihir
ayıra
june
çevren
okuyarak
siyasetçi
nasa
sözün
##abilecekleri
kontör
yapanların
rengini
güçlerini
bağımlılığı
safranbolu
söylendi
kullanılabilecek
##osa
dersim
liderler
##çok
yürümek
slayt
eşref
piyasalar
bilmeden
imzası
etkinliklerle
kurdukları
##birlik
##hadet
##iyeyi
dedikleri
##cir
sektörel
kırıklığı
alkan
yapılmasının
galib
##lallah
oyundan
âh
patladı
ink
havuç
işim
hediyelik
##lerimden
inclu
nov
çevrili
fethullah
yönetmek
bulunanların
detaylara
ızgara
rağbet
##lenip
kenarındaki
başkanın
##umdan
bakü
yapsın
etmelerini
##dakika
tabip
cezasını
malazgirt
kaynat
topraklara
##wagen
giydi
tekni
aı
girişimleri
düşürdü
seslerini
ticaretin
muciz
turnuvada
olcay
##abeth
kaos
dogru
mudan
çekecek
duyduğumuz
dövme
şeydi
##erin
tehdidi
bakarken
başsavcısı
tükür
volks
keçiören
girişimine
dene
geçmesini
panor
kitâb
smith
kurbanı
şekillerde
bölüme
##ст
selman
okunması
iskoç
kırtas
pitt
metaf
gerçekleşir
##burgaz
söyleşi
##fabrik
sınıfının
dibinde
hepinize
ihtiyat
##86
##liyi
sarp
kaynaklarından
kıyafetler
muhtarlık
yatağı
yendi
kapatılan
türban
farsça
##elek
alıyorlar
arkadaşlarımızın
seve
tura
görünüme
yatakta
asliye
adaleti
binbaşı
yükseliyor
tıraş
yayıncı
alışverişi
koyduk
ömrünü
##bekli
kazandıra
okunmuştur
talepler
##izik
##konusu
koltuğu
oranlarını
1971
ihracatın
noktalarda
işinde
yıkıcı
kapısında
alakası
ahır
tarihî
##şama
##bani
oranlarının
biriken
uyuma
##aben
cro
yönüne
köprünün
artırıyor
lavanta
sanıyorum
gerekmez
turizme
revize
mekanda
ifadeyle
##uri
hamas
bilgilerine
takma
ıd
bereketli
hizmetlerine
genc
alz
hekimliği
kaybederek
lot
uzatma
astım
planını
vietnam
bakanımız
##92
##olla
##hası
açılışına
gil
çör
sakar
işlemlerine
köylerde
ilişkinin
ipucu
resepsiyon
##öf
harem
##ween
izlenim
flo
##uli
getireceğiz
topladığı
kaset
organı
adaletin
yasalar
valla
gevş
zum
bilanço
side
müge
146
modelin
zorluklar
##dırlar
gittiler
döngü
açıklamak
ulaşıldı
filmini
mamak
##abildiği
kabulü
manevra
iddialara
fetva
gidelim
kur´
arttıra
isteyecek
##dığımızda
değişime
##perver
kafes
##ball
salonları
türkiyeye
ekmeği
geli
kararların
sebepleri
çiğn
feh
yurtdışına
gülün
popü
çantası
davranışı
maddede
sevdiğiniz
kayıpları
işletmenin
##´inci
francis
ahlat
bakteri
kutluyor
geldin
elimi
##ame
ürünlerde
notları
talebin
kullanıldığını
bilgilerinin
ulaşarak
hedefine
hollandalı
seçti
boyan
##kala
düzenlemeleri
özhas
sorununa
görüşmeye
cenab
##labileceği
yolculuğa
##sıyor
pıyas
made
dengesiz
imtihan
3000
haçlı
bakmaya
##sizliği
çöküş
pav
tabiki
beslenen
kaptanı
anlaşmalı
yığıl
geçirecek
bağımsızlığı
##ceğimiz
1967
turş
toplayarak
isteklerini
##bilmektedir
hijyenik
alâ
perişan
işinin
cezaları
bırakmadı
bilimin
##hanede
hattının
##trik
##sî
barınma
seçimlerinin
dolmuş
borçları
ayırmak
eskort
kubb
live
##ayarak
sayılmaz
tasarımlar
bölgemizde
götürüyor
akü
##ılmasından
gösteriler
hıristiy
göbe
porn
seyyar
tercihleri
poy
değerlendirmeye
frankfurt
teşhisi
tif
ilçemizin
nm
teçh
bağlantıları
cafer
ub
görgü
otu
single
hatırlıyorum
kitapların
ayağına
gördüklerini
mahalleye
himay
halkımıza
teğ
kampüsü
hakimiyet
haciz
mona
gözüne
##üldüğünü
ünye
dort
hedeflediklerini
gönderilir
şapk
kitabının
##alin
bölünmüş
eliz
olmazdı
ekiplerimiz
vermekten
ulaşır
çürük
kavray
bulunduğunuz
##ptom
113
alışık
tutsak
sağlanmaktadır
##ameti
buyuk
bilinmiyor
##dok
incelendiğinde
demiştir
göçe
engelleyen
sevgisini
projelerinin
diyal
subaşı
kiz
teçhiz
komple
ög
yapılıp
güvencesi
geliyoruz
gerektirdiği
maraton
##iliyordu
hibrit
tarzında
fonksiyonu
spar
durdurdu
mızrak
info
ayrıntıları
gps
komplo
kılınç
sunarak
##luğundan
örtüsü
temelde
liyak
##rome
gülümsedi
##âret
virüsü
etkinliklere
deresi
milletvekillerinin
acent
günlerini
özgürce
fü
yanlısı
anlı
bekçi
secur
dosyayı
süleymaniye
faaliyette
müc
alırlar
içeriğinde
aşiret
devletimiz
kafkasya
kemeri
##atılan
call
etrafına
siparişi
hastaneleri
topraklarına
gt
öle
mezarı
bilez
geldiğince
fiyatlara
sahibiz
birbiri
aygıt
bulunanlar
##elsan
santrali
coşku
teminatı
alacaktır
kanıtı
ishal
alerj
akhisarspor
##selam
derd
mumcu
yapabileceği
edebiliriz
unvanını
konusunun
tercüm
sağır
##ılmayacak
anormal
sağlamıştır
durma
yakınlarındaki
zararları
geçirip
ds
imkanlar
##boy
girdiler
1976
prefabrik
league
ishak
keman
günlerce
gerçekleşmiştir
rastlan
##tezi
zevkli
mazeret
izolasyon
##sünün
akvar
doğası
varlığının
mağazası
bilirkişi
molla
önemsiz
yaşamayı
parkta
kanad
formunu
iskan
xia
içerisinden
##gra
1923
namazına
gürsel
folk
meğer
##lanmanın
depremde
patlaması
değinerek
dinlendir
sanata
somali
ilkadım
bem
iin
konfederasyonu
ula
rakibini
ilçemize
erişimi
kıyıya
izlerini
##memeleri
önlen
320
anlatıldı
kontrolleri
değiştirerek
revizyon
##meksizin
gaziosmanpaşa
akıcı
eserlerini
##hy
aslına
bitirmek
kırtasiye
lisansı
##ronun
başlıyoruz
yazarken
##iyla
seneler
söyledikleri
doçent
##ow
kalabilir
yapılanma
olabilmesi
bilinmez
işadamları
sihirli
##ien
böyledir
##star
ulaşılabilir
istersen
yaştan
düşündüğüm
yanar
kanalda
##yâ
oluştuğunu
##übey
doldurdu
bilmiyordu
makinaları
ateşte
##imizdir
##ınızla
kuruy
##cımız
çekimleri
##ilince
rahmi
öğrencilerden
##ude
##muyorum
yönetecek
ağızdan
geceye
##cılığa
isterdim
hoparlör
##oda
adları
1968
f5
gülüş
yazdıkları
gideri
acısı
dolgun
belirtildiği
ruslar
ebat
kararsız
edinmek
yükselme
kumluca
male
ayas
almanın
nuh
gerginliği
çıkarmış
##ities
##idan
koordineli
fitness
kollarını
left
##ilmekte
dinlet
dakikasında
boe
##mettin
durmaz
sporun
##sib
özhaseki
risale
sağlanmış
düzenliyor
yağışların
akalın
entegrasyon
premium
varlıkların
herif
sonunu
hazırladığımız
sevdiğini
##yayı
yenilikler
coğrafyada
mürette
yönünü
tahk
fırsatını
olanaksız
kabir
##mayanlar
tuzu
bergama
saatinde
sarsıntı
##ilmemiş
aha
168
çatışmada
bora
gelecekteki
paragraf
bozuklukları
sef
altmış
##goz
berrak
sunduğumuz
vatanı
adada
tesbit
fantastik
mahsul
derecelendir
yetkilendir
##sans
karıştırma
shak
doğada
stra
binaları
pürüzsüz
ölümünün
##bahis
ilerde
kasted
aralığı
yatkın
kürtlerin
düzenlemeye
fosil
##irsiniz
avşar
bezi
durdurul
gömle
soruşturmanın
cs
mudanya
değerlendirilen
##lizmin
nispeten
inip
arak
eşdeğer
hoşgel
hudut
salat
##ımar
kadınlarımızın
saygısız
ibaresi
while
siyon
sr
##mâ
özelliklerinden
ayrış
markaları
##ıldıktan
değişmesi
##çeş
edilmemesi
oyunculara
etmemiş
faik
salona
dağınık
hususta
sevkiyat
tepeden
çarpışması
bundes
mezunları
gsm
nal
müdafa
müdürlüğümüz
hücreleri
eylesin
tanır
##atıp
sandığa
##çuluk
165
transferde
davranıyor
karakterini
noktalarında
ingilizler
american
fasulye
gösterip
##sultan
merkezin
hazırlanır
ihracatçıları
görüyorsunuz
beğenisine
tepkisi
paylaşıldı
aktarma
##mezse
ışıklar
kesimleri
aştı
ettiğine
tanımlama
gerekirdi
illa
lenin
üçü
philip
dolusu
görevlis
tilki
136
nobel
dizüstü
dezen
konsolide
ihtar
kırıklığına
sürdürüyoruz
##ürt
##yazılı
belirtilmiştir
kapatıp
kalmasına
çarşa
içerikleri
düğüm
rejiminin
##lede
kaçırma
rejimin
##dyum
kaldırarak
gazetenin
belirtilerek
##pati
cun
sabırlı
olmamıştır
üyelerini
enerjinin
esasına
kalanlar
olsalar
kullandım
takımların
döktü
sonuçlanan
değindi
##mişlerdi
değiller
mehr
tahsi
demeye
okumayı
boyutları
şehitlerimizi
1972
müdürlüğünde
nostal
amaca
vites
nâ
değerlendirmeler
borcunu
prime
yokmuş
anıtkab
##pos
montajı
yollarının
içecekler
dostları
siper
incil
eyleme
takın
ertan
##mızdan
yener
numarasını
amaçlar
kuracak
sözkonusu
zorlaştır
varlığına
çağatay
garniz
bankaya
aklını
vahim
alıkoy
kâh
tahsin
çekilme
fiyatlarına
ürünlerine
işgücü
dönemden
sinsi
formasını
verilmişti
ücretin
anasayfa
kulaklık
arkadaşlarını
konuştuğ
##memize
2022
oluşturulacak
karadan
seçimden
kebap
hafiflet
gözlerine
mary
nezaret
sağlamaktır
##emediğini
müşterinin
cra
naf
kimileri
##ql
kitaba
güvenliğinin
halat
ablam
aksesuarları
yansıması
kullanabil
##lıyorlar
heykeli
işbirliğiyle
nico
elmalı
anlattık
sondakika
mekanizması
kullanıcıya
buruk
geçmektedir
donem
##cb
kabr
dize
yöneticilerin
dernekleri
düzeyine
odasının
açılım
karac
bulanık
digital
evliya
veriş
fonksiyonel
##atar
yıllığına
keserek
gemiler
yapıyı
seçimlerine
tabut
demirspor
zümrüt
vergiler
yetkililere
##tm
galibiyetle
müşterilerinin
fedakâr
kaldıkları
erdemli
çalışmalarından
suçtan
edilme
prodük
uygulandı
bayanların
olsunlar
tesisler
siyasette
##dört
kapısının
##ilmeden
yürütmek
taarruz
ilişkiyi
kım
şeridi
kültürün
##çarşı
##amadım
zikred
fiyatına
##lanmayı
##linde
##72
katılmaya
namık
çalık
kalemi
erkeği
görece
ibret
bölük
abiye
karşılıksız
kalitesinin
barbaros
country
telefonunu
fanatik
##eze
gerekebilir
gönderilmesi
foça
güçlerine
ömürlü
kompozisyon
yazımda
planlarını
gelmesine
beklentilerin
suresi
oluşturulmuş
champ
etmeliyiz
raporlar
partililer
ilçeleri
çalıştığım
zenginleştir
kası
mevsimi
pınarı
varış
batısında
bebeklerin
280
bulunmaz
##ilmesinden
çıkacağı
##bie
istemem
tersan
karaya
kelimenin
##digi
kalkanı
mayın
vücudunun
seçeneğini
dc
kısıtlama
##selen
partiden
enflasyonun
tarafının
artırdı
ozel
yıldızları
##pro
demiryol
marifet
##likasyon
tuncer
ışığın
birbirimizi
kazancı
içerikler
°c
anlayacak
1969
muame
aleksan
olmamalı
##lanmasından
şaşkınlık
halkbank
yıkıldı
sırayı
illere
enkaz
dayanır
kasıt
yazıldı
che
sergiledi
1965
lokasyon
kaybettik
öteye
elinizde
##ebilme
tamamlayıcı
adamların
yalancı
ayarı
htc
öylece
etab
nusay
turunda
bahsetmek
içgü
ambulanslarla
burjuvaz
bayanım
bulunmaması
sağlayabilir
napoli
total
##faş
north
yapılmıştı
seyrede
keser
kartlar
bostancı
dönümlük
##edin
orkestrası
şartlara
planlıyoruz
sakinlerinin
bitecek
acayip
td
bozkır
malları
##km
hayatımıza
gitmeyi
skoru
yokuş
baharat
bara
binaya
bakınız
köşede
make
çarptığı
yolundaki
kremi
sorg
anap
defne
singapur
numan
##labileceğini
teorisi
##lemeyen
görebilir
otomobille
saklıdır
işlerinin
çerkezköy
kısımda
dayanıyor
light
necmettin
görmeden
##oke
mangal
ibarettir
ortaçağ
taşra
yenı
kullandığını
tatilini
##pal
mevlit
##old
belirtirken
got
edine
baki
dro
yerdeki
mala
kullanabileceğiniz
yapabileceğiniz
raylı
müsiad
seviyeleri
bildik
yarısına
ık
bilmediği
women
sultangazi
##seyerek
desteklediği
izleyerek
duyum
durdurmak
söyleme
kodlama
##ojen
basılı
elvan
sezen
töv
edenlere
üstlendi
ruhuna
yağdır
conn
çıkışında
avukatlık
yazdık
##madığınız
başladıklarını
ome
harcamaları
kün
178
projelerle
kardeşlerimizin
kolluk
##oviç
stock
akşama
kolomb
yürüttük
tanesini
##asin
kaldılar
sitem
##iha
yaramaz
alç
tarafındaki
candan
##şit
##ellif
müşrik
senelik
bitmez
konyaaltı
oluşturuldu
toplantısının
##anne
louis
yaşaması
dine
kavra
sakız
##ahmet
dökün
hizmetlerinde
dass
vakitleri
uzunca
hamuru
egz
##´t
##teli
inanır
havalimanında
uyumu
##urnal
kıdemli
uygulamalarını
davetli
buradayız
devel
kelimesinin
sorumluluğunu
jes
cilde
cinsellik
sahiplerini
bağladı
harbiye
sergileyen
##eg
adınız
sterlin
ormanı
çözülmesi
juventus
meras
##ont
138
edinen
rahmetle
yaşamaktadır
##organ
tasarlanmıştır
liz
neydi
üstad
açtım
getirmişti
sanayici
hamit
kavramlar
head
tutkun
ifadesine
sistemle
yağlar
zorlanıyor
tin
##iymiş
programlarının
##ota
diğerine
semptom
özden
##emiştir
ea
konumunu
görmemiş
günlere
aracılık
parlayan
enjeksiyon
where
getirmeyi
linux
mevsiminde
yabancılar
endişelen
anıl
saldırıların
fira
119
##îs
tartışmaları
fuhuş
talat
anastasia
bakılırsa
yargılandığı
çapta
erkekleri
kadi
çamlı
güneşli
##üse
nihayetinde
münasebetiyle
sitesini
dıger
ilişkisini
mke
estetiği
çiçekleri
ölçüt
sınavları
kurnaz
kolaylaştırmak
kafasında
class
ulaşmıştır
dönüşen
tamamlama
üretme
hayatımızın
karsı
##laşır
##43
çocuklardan
anıtkabir
yenen
varlıklarını
##ifre
##urlar
ısıt
sağlayacağız
tezi
yapmasına
malın
eklent
özk
express
365
yürütüyor
duruşmaya
tebli
uran
bağr
1200
camide
icraat
##kaynak
lerden
vizyonu
görüşmenin
yetmiyor
bilinçsiz
210
volkswagen
demirören
yükselmesi
artmaktadır
##oma
##chaf
##ısındaki
acun
kanunla
bakıyoruz
edecekler
tüfekle
üreticilerin
##ğümüz
engelleri
makamı
suyunun
varlığın
tâbi
güldü
gerçekleştiriyor
koltuğuna
sakatlık
resûlullah
maydan
ayrıldığı
yolundan
yaşatan
nasil
##nesi
kartepe
kaleye
konuşmanın
##station
jeop
projeyle
cele
dsi
ucuna
çevreyi
kw
akışını
afiyet
bahseden
osmanlılar
apaçık
olamadı
ailelerinin
karşılanan
suni
sima
##ardan
dosyasını
bahseder
ibr
vatandaşımızın
çıkacağını
##evleri
bularak
engelsiz
aidat
kurtulan
yürüyüşe
basınında
##mund
##vana
diag
##lanmasında
##lasını
suçun
görülmeye
zin
school
##izma
galak
yükünü
berbat
eylemler
##gers
daireler
kollu
araştırmanın
##boş
insül
lee
wie
kıvır
gezdi
ırma
##ilmeyen
##istanbul
kurumlarına
sağlamayı
hazırda
göksel
yazıyorum
sopa
mukav
gelib
depreme
kıvıl
bosch
bombar
ilâhî
uygulamasında
minar
aylığı
government
uyguluyor
davayı
yorgan
derseniz
three
kur´an
1963
fıkrası
mercan
yaptırımlar
katılmış
dönemdeki
jel
gerçekleştiriyoruz
doya
modem
agu
ilimizin
##emm
sayılabilir
mümkünse
söyleyip
kanunda
aşaması
##dö
sure
##bayı
akdağ
büyükler
taşınabilir
elinin
atması
makas
##mağ
saatlerine
halkların
bulunmadı
##sere
##cağa
paylaşarak
honda
birçoğ
##amanız
##îf
gerçektir
aleti
##ğimizin
müşterilerimiz
yetişmiş
space
değiştirildi
alışkan
gençlerimizin
sporcuların
kenet
ilişkilerde
kanattan
lösemili
çokça
atılacak
117
çözme
wr
##ен
hedeflere
armut
olg
soyad
inanmak
##tist
maymun
temsilciliği
kesilmesi
bıçaklı
geyik
etüt
proto
##pay
devrede
##alenin
etrafa
ilerley
hafter
döndüm
fikirlerini
sözleşmesinin
baklava
büyüğü
girişimini
angel
##oya
mlf
##isten
sizlerden
istikametinde
trop
avantajları
olanlardan
edebi
valimiz
kanlar
belirttiği
ruhun
##sif
olduğun
gelibolu
sonuçlandır
##terest
sevenler
düştük
getirmesini
alınmalıdır
ekosistem
esaslı
yazdığım
##mezdi
söylemesi
müfredat
okullarında
dana
aşağıdak
sürdüreceğiz
games
ıng
williams
silahları
maçlarında
alınca
arabaya
add
yetmezliği
ailesinden
##heimer
arttırılması
sistemlerini
yemekten
##jin
tereyağı
kırıldı
detaylarını
keder
andı
düzenleyecek
tekbir
elçi
oluşmasına
tus
muhsin
başlayın
yetiştiriciliği
günlerden
ılım
260
##ilebilmesi
ıse
merkezi´nde
haliç
seferberliği
eroin
mithat
rif
sadraz
gerçekler
##off
##iyseniz
geliyorum
onk
şaşı
nerden
kenevir
verilmesine
felse
penis
lcd
alımları
kocasının
taraftarların
geçtim
ını
çabucak
belirleyecek
kabız
açtığını
yaşın
yapıldıktan
milyonluk
dengelen
irem
taşınan
korum
ortakları
dumlu
great
##leşmeye
temizlemek
sürücüleri
lisansüstü
kaçar
sahili
döng
çile
yeteneklerini
polislerin
dokunmatik
suçları
asp
firav
başının
korn
pancar
demesi
sokaklarında
iletim
sayının
evlenmek
normale
bombası
alınmasının
çağında
köşeye
evladı
memleketin
getirin
etmediğini
cihat
deneyimini
sürdürmektedir
türkiye´deki
coşkuyla
arkadaşını
##bahat
poyraz
##bılır
##beş
##wis
eşyaların
tebliği
termo
embr
türbe
bahsetti
dedem
başvurusunda
çeşitlilik
ürünlerden
alerjik
##bıyık
taliban
kışla
lokma
medyaya
hâlde
kapatan
çorbası
pişmanlık
verilerini
pişirme
serinin
öze
çeşitliliği
excel
kardeşleri
##lanmaları
yaşamının
memurlar
sahipti
gösterim
yalıtımı
fabrikada
lüle
anlamış
düşünülüyor
121t2
ferib
##erliğini
pip
##dro
eksper
ışıkları
270
cıv
televizyonu
çevresini
elizabeth
##ımla
joe
##bes
sporcunun
soft
örgütlenme
kavramları
sağladık
##rich
inandığını
aynıdır
cc
altyazılı
bankasının
etmiyorum
##reddin
içen
yaktı
gösteriliyor
verenler
riskleri
aralar
sakatlığı
##ils
##etooth
##yoz
##masınlar
sağlanmıştır
##war
romalı
mülteciler
sokakları
sevmek
yetenekleri
kusma
parmağı
sıradaki
katılır
basan
büyücü
dn
gruplara
sanıkların
ipuçları
gitsin
xbox
çöpe
halled
child
take
mede
betim
fiyatını
ünlüler
dağlık
firar
politikasının
bütünlük
sektördeki
havalandırma
##latıyor
yaşları
##veri
##yıla
ıf
denizaltı
ida
baska
başlattık
ittihat
zim
##oğlan
masrafları
##aht
yöneticiliği
yazımız
sanatçıların
##eve
erotik
vermemek
beli
krediler
kardeşlerimiz
kle
##beyi
sebeplerden
bıçağı
getirmektedir
sorunlarla
yurtta
##labilen
kuruyor
text
artışın
yediği
düzenlem
taşlı
seksen
kayıtlar
remzi
bilmesi
wes
hallet
şerid
görevlilerin
müellif
hesabında
becerilerini
halktan
biliyorsun
nüfusa
##liklerini
damak
book
mavili
kubbe
genci
##üsünden
robin
dönüşür
penta
bitiyor
##unay
zorlama
##yenin
garnizon
vin
nedim
yabancıların
çıkardık
gösteriyordu
night
yönetilen
kiracı
büyümüş
paketleme
##tıran
faydalanmak
tamamlanmasının
ışıklı
topkapı
1948
şura
istemesi
arttıkça
156
kadeh
salgın
analy
şampiyona
durul
bluetooth
jar
##abat
artırır
tarihçi
işgali
yapıyorsunuz
tanımlar
teft
##41
bari
boyacı
mecid
py
servise
havalimanına
hayatından
içeriğini
850
adliyesi
edildiğinde
sürüp
testler
istemişti
1961
çıka
tona
ortodoks
geçilmesi
mevcu
ramp
gua
etmelidir
between
yaprakları
firari
defans
optim
sıfatıyla
hayattan
açıklamasının
kuvveti
##iksel
samet
öldürür
eserinde
social
gazeteler
##ılınca
gençlerimiz
ödeyecek
dinçer
rasim
joseph
##hip
pompeo
kayalık
eleştirdi
yaptırdığı
karargah
görülmemiş
zelanda
hesaplar
dimdik
##oğl
prolet
operasyonun
kodları
efekt
avni
kazandırılması
##uge
artıracak
##lacağına
deterj
ünün
pompalı
dağlar
manis
akkaya
##ütü
##semi
katliamı
anali
bangla
aust
##ов
çözmeye
##aloğlu
konulması
kamış
alandan
yaralama
annesine
üslup
##çeşme
##dete
gerçeğini
şüphelilerden
çürüm
cook
nek
aid
getirilir
işaretleri
taha
bitkileri
döndüğü
daya
artarken
tedavileri
havalarda
cümleler
koktey
çimen
keşan
hazırlıklar
üretimde
atlama
anlatıldığı
tanıtıldı
düzlem
want
durumla
raporunu
hisarcıklıoğlu
##leşmenin
eğitiminin
karşılaşılan
adapte
bayrampaşa
kapasitesine
göçmenler
nedenler
merkezlerine
talebiyle
liler
##dm
önerilerini
bencil
bayrağını
##last
kandıra
söylent
gösteric
##landıracak
##desiyle
kulübünün
kalırsa
zel
regaip
temini
tamamladıktan
konfederasyon
##iral
adındaki
kokusunu
kurallarını
hurma
##ilebiliyor
ürünlerinde
filme
##evious
kuzen
hakiki
gerçekle
acısını
hazırlıklı
sed
halindeyken
oluşturduğunu
erdoğ
direnci
hitit
dâ
kuruluşlarına
hikayeler
gerçekleştirdiğimiz
huzurevi
ağar
göktürk
koyacak
ediyorlardı
sağdu
ebedi
etkinliklerin
otobüsün
uyarılarda
##lasına
acılı
ağırlaştırılmış
funda
müzikal
zaaf
##tansiyon
portal
##izan
march
tamamında
demokrasiyi
##ağan
gösterin
nelere
söze
görüntülerini
hastaneler
mürekkep
koşullarını
sözcüğü
atm
##luğundaki
kullanıp
##düğüne
karacabey
göbekli
şövalye
##cup
başlanmıştır
olmayanlar
çiftinin
emniyete
anlayışının
geçenlerde
ulaşıma
doyum
amiri
sakinleştir
sistemli
çıkmayı
rakamlara
gemileri
toplar
657
porto
savaşan
##ett
hektarlık
kaybettir
##eccü
getirdikleri
silahların
kurumunun
sunuc
otizmli
gösterilmesi
surette
atarken
kefa
eyaleti
besleme
kaynaklarda
semineri
talebinin
çiftliği
romat
malların
organizasyonda
serinlemek
durması
buluşturan
yerlerinin
tedavinin
monitör
semer
girmeyi
çekmeyi
bildirilen
konağı
kuma
kitaplarını
##73
emekliler
mütevel
tebligat
gişe
sömürge
akpınar
başladıktan
felsefi
zübey
hattâ
oyunlarını
four
öder
anlarda
üretiyor
##nar
##lia
sayılar
verilirken
paketleri
##åÿ
bilirim
krallığı
##ror
tavş
birgün
övün
ayrılıp
bağlandı
ayşegül
##riyat
selan
batıya
kırılma
kulüpten
122
##dıracak
seçilmesi
sınavda
homo
içlerinden
kullanmanız
yorumunu
vasıta
rtük
itham
sorumlulukları
gelişi
istediğin
hoşlan
kahramanlık
uyarıcı
cenneti
bale
melan
ox
saldıran
basım
duygusunu
##çıları
zamankinden
##ful
giysi
modi
bitiren
medical
dururken
amb
hiçe
kayıplara
seçip
enc
clin
şeriat
##trak
yaratacak
rag
çalışacağım
right
##ezid
karşılaşan
çamlıca
ılımlı
##ilmemesi
kaynaklara
yapabiliyor
##tüst
oyunların
çiğli
kutlandı
hızır
hatırlatmak
sustur
gener
çalıştığımız
##çeri
başlığıyla
telkin
eleştirel
siteyi
bıraktım
129
gizle
sarar
baht
nite
zorlan
mahalles
ilâ
muhittin
zihni
kesmeden
kozan
müta
söylediğim
ansızın
kelep
##miştik
ilçesinden
insanlarının
travel
silme
xiaomi
örtüş
sti
sanayinin
via
zemine
hasarlı
duyurmuştu
##dist
diger
##eren
kapanan
check
yüzyıldan
##ydılar
basıncı
maddeye
mekanları
dayana
##isiniz
doğruluk
coşkulu
çalıştılar
bahsi
hicret
##ril
##badem
listelen
##lünün
##vice
beğendim
##ax
verebilmek
##mp
akust
ode
yapacaktır
etse
##raj
##deti
##duğundan
çıkartılan
envanter
phil
yaşasın
sırtında
durdurma
tos
suriyeliler
ında
otogar
##güm
eşiyle
geliştiric
konsantrasyon
riskler
müşteriye
görevlendirilen
mario
aktarılan
kusura
kampanyasına
kendin
ücretini
bozma
göstergesidir
kuyumcu
alam
##nie
sırtı
##101
unutmamak
kanalına
sahaf
251
ziyaretten
ayaklarını
##jur
görü
##amızdaki
değişimin
gecesinde
çıkacağız
seçtiği
bahçeler
kulu
sermayesi
meriç
besleyen
endüstrisi
kulis
anlıyorum
look
taşınır
vagon
soba
düşündüğünü
çırak
##terapi
bulamayan
boşluğu
çekmeköy
olmalarına
atta
belirtisi
gul
tanıtı
##icik
değiştirmeye
durun
sayfalarında
püf
bankaları
kontrat
memduh
##lea
taks
##lararası
##ria
gecek
##ılmasıyla
##ememesi
beynin
edilirse
giymiş
mahkemesinde
etmelisiniz
tarihindeki
##düğüm
##darı
hayr
ateşin
ilân
cry
karşımızda
onaylanmak
yazıya
##opedi
isimlendir
##omuz
benzerlik
teyze
girmesiyle
##luluğa
buralara
##tasyon
sonun
saçlar
akgül
kurulunca
başlıklar
personeline
soruna
barışçıl
sloven
sözlerin
hedeflerini
##ýnýn
ağrıları
yapılmaya
kardeşin
günlerdir
düşürmek
ayrıştır
yarışmanın
meyveler
##polat
yokken
yuf
##dıman
şili
ziyaretçilerin
evlerini
f5h
binde
piyasaları
##dian
satıyor
azap
değerine
şehirleri
bylock
##bia
örgütlerine
büfe
##stantin
##ected
standartlarına
süreyya
cumhuriyetçi
raporun
dekanı
finanse
duyurusu
alacağım
muhabiri
toplamaya
kısımları
girince
sentez
gültekin
tayvan
megap
çın
patronu
yılbaş
bedelinin
cerey
tartışması
yüzyıla
niyeti
##dayı
yapısıyla
kulüpleri
petro
kültürüne
şâ
düşüncesiyle
pinterest
##wards
##dle
haw
##memesini
bulunduğuna
gururunu
tulum
üreticinin
düşüp
##çioğlu
yabani
eras
hedeflerinin
gözlerle
##alth
çarşaf
kapısından
digitürk
##imdir
savunması
##süne
sahibinden
oğluna
##sörü
bırakmayan
fk
##imes
satışını
through
##ünikasyon
mimarisi
mers
serdi
prestijli
##lanmasıyla
istikrarı
zehirlenme
payını
güzelce
##resif
##urg
konumlandır
örgütlü
##bridge
non
phone
geldiğimizde
chrome
şarkıyı
police
ilete
sapta
meseleyi
tepebaşı
terörün
alexander
yetersizliği
doğayı
kağan
##kiler
kadından
süb
yenisini
lösemi
##lığınızı
göle
başlata
tedbirlerin
chi
törenin
kameralarına
bulaşı
düzenin
ölümle
öpüş
tepkisini
etkinliğinde
asılsız
yatırımın
second
ax
değişimler
teşekkül
sayfasından
yaşadığınız
müşterilere
neticede
##kele
ateşkes
tepesi
birbirlerinin
göçmenlerin
piram
horoz
##emiyordu
bilinmesi
köksal
keza
player
lokomotif
zı
uygulamalara
dayak
bisik
##hel
engeli
akşehir
simit
simg
taran
içimden
##yiğit
buse
##kıye
poly
toplanarak
durdurulması
asli
çevredekilerin
türüne
ödüller
getirilerek
teknisyen
şartlarında
amster
kesinti
hidrolik
##esa
akarsu
dead
poster
kafil
##ress
1080
şüphesi
hakemi
bozdağ
konsep
eczane
toplumunun
selâm
savunmak
düşüncelerle
ellerindeki
bitkin
1945
örneğini
design
##layabiliriz
hayvansal
bitkilerin
cüce
##back
dalgalanma
türbesi
leylek
piyasanın
alındıktan
##200
çocuğunuzun
sirk
toprakların
1964
sonlarına
bazılarını
reşit
ulaşmayı
öğrenince
klor
##cast
##izmi
annelerin
duymuş
büyüklüğündeki
yükselişle
##liğimizin
toplantısını
dream
şemsiye
nazi
bayar
##rev
sahiplen
tayfun
adaylara
otururken
afrik
ihtiva
bedi
kullanıyoruz
tarkan
duyarlılık
tib
yapabilirim
ent
tatilinde
çıkarta
kapaklı
sürül
toplanmış
planlaması
yaraladı
gazetecinin
sahilde
kampında
yakınındaki
yanlarına
iltih
etmen
kurulmasına
ortamının
##kil
olasılık
oralarda
kip
çıkartıl
kıvan
teklifler
şirketine
solda
330
sınırlar
see
million
milletine
dumlupınar
kamuda
##yali
düşüren
yüzleri
adamla
koltuğunda
istatistikleri
çalıştayı
sarsı
sensin
hergün
132
tabloda
##rer
takıp
kuruluşun
dsp
yasaları
bağımsızlığını
yarışları
mendil
transit
düzenleniyor
koçak
sebebini
durumlarının
amsterdam
edeceksiniz
##lace
ikinc
tüzük
heyelan
koruyacak
döl
genişliği
değişikliğine
fıkrasının
suların
vizesi
okulunda
temizlenmesi
sayfasına
hasadı
katsayı
değerlendirerek
kağıthane
sömürg
kavramını
ortalık
imge
orkestra
yaşamlarını
karabağlar
monaco
laptop
akvaryum
##ating
işçilere
anneleri
havza
##tina
âdet
##jo
atladı
batık
asım
rose
teselli
teklifleri
oryan
boluspor
geçirir
örgütsel
##64
varmı
bölgelerin
defasında
ebü
inşası
nusaybin
cela
##inip
yasalara
infi
değerlerinin
yasaya
beyanı
öncek
yardımına
##bede
düşünürken
hok
kaplıca
güneşi
bildirimi
##izle
hissediyor
açıkta
sunmuş
yaratılış
şarkının
dileğiyle
##itz
##mayabilir
tezgâh
bakışları
çörek
kıldı
düzenleyerek
desenli
galerisi
amacının
##çilere
tesisatı
olasılıkla
kaybetmişti
heyecanını
sağlıksız
irde
nesiller
güreşleri
##vatan
yanlışlıkla
çocuğuna
ılgılı
gençlerle
kaynağını
kriterleri
devletten
hepsinden
kaynaklarına
yapmayan
dilimi
1966
şehrine
sağlığa
kırgın
sahih
durdurulan
rodri
mahkemesinin
secret
sitelerinin
tabiri
##lamayacağı
kullandığım
water
borsalar
##gür
sınıfın
kullanmadan
bildiğini
##latacak
liginde
elbiseler
doğar
148
rekabetçi
adresleri
##lebilir
türünün
##inger
gürcü
cazibe
gerekti
kurtaran
kıraat
boeing
tesla
inisiyatif
kick
blogger
sitemize
kariyerine
çalar
yakar
yükseltmek
yaşamında
aca
distrib
görebilmek
##lerimin
##opo
rand
karahan
kalay
malul
yargıya
##bâ
##olan
pazarının
adımların
hizmetlerden
##ydık
masasına
sevdir
gerçekleştiğini
migren
ibraz
milliyetçilik
barut
basra
bulacaksınız
seydi
kompleksi
kalbin
marina
bunalım
ilgisiz
karşılaşmasında
aöf
girdikten
enerjiyi
ikaz
rakamın
jane
yapılmaz
bakışta
##üyorum
saltanat
açıklar
kitlesel
##iyop
telekomünikasyon
##inen
##tme
yaşanmaması
##itch
müteş
##ector
rahatlığı
sistemlerinde
otellerde
şirketlerinden
yaşananları
##larini
bae
gamze
##iren
çıkarmayı
memnuniyetle
yöneldi
arkadaşların
##haneye
##ship
etin
izlediğiniz
raporunun
hareketlerini
kesiminde
peyniri
ifadesinin
##yılmaz
attığını
umursa
eminönü
davaya
rengar
zana
##layacağım
durumdaki
mt
ulaştık
##diye
##dıklarında
şeyle
yürüte
party
saçı
sınıflar
şehirlerin
bilgilerinizi
hâle
cos
sultanbeyli
eksil
yıldönümünde
sunmayı
boşaltı
artırmaya
kilosu
izmir´de
dönemindeki
bent
oyuncuyu
##etz
soruyorum
family
##ining
başkanlığındaki
ağaca
153
koşullarının
olaylarda
##cini
taraflara
sembolik
##many
##ery
paniğe
travma
tencereye
young
##lettin
##iss
atlan
133
galibiyeti
yetkililerinin
##strük
fatsa
yataklı
kaçarak
kişiliği
jeneratör
##baç
sözleşmesini
##asy
komutanlığına
lezzeti
formayı
ortamın
##els
duyma
devrinde
gruptan
yayınlayan
patlamanın
yaptıran
gereklilik
##qq
alaca
karakaya
gideceğiz
kabuğu
santimetre
tuttuk
iyon
need
kamaş
evimde
misali
dolan
sekizinci
evlendi
##cket
anlayışına
kanadı
barışın
reyhanlı
navig
yakalayan
bulgular
rastlanan
##lamayacağını
##hin
##alının
##ektör
temsilci
rızası
multi
seslenen
yakalanma
tyt
kompleks
tarlada
alf
ürk
yaşayanlar
çaldığı
konan
pasifik
türkeş
auta
solo
şantiye
feribot
doluydu
noktasını
husumet
değerlendirmesini
arkadaşlarıma
dönemler
engellen
muvaf
##´üncü
kadarki
tanzim
beldesinde
yayılmış
pvc
bloomberg
tavırla
kaynaklandığını
ruhsatı
050
gerçekleştirerek
gösterirken
##eköy
hipertansiyon
telefona
edinme
expo
fış
havayolları
birleştiren
çarşısı
başarısızlık
sütlü
kurmayı
içindedir
arch
hanımı
incit
öksürük
yaparsanız
olm
rusça
myk
mânâ
öğrenir
##lerime
çocuğunuz
jeoter
cetvel
kalacağı
satmaya
kadınlarımız
kanatlı
aqu
yenilgi
indirip
tig
başlamasıyla
olacaklarını
kardeşini
keleş
selanik
televizyonda
odur
ürkü
ekber
lead
lop
##tures
mef
yaşanması
##tics
dark
rakibine
being
unter
##layacağını
görmeyen
yayıldı
politikasını
geneli
paylaşma
playstation
düzenini
hastanelerde
izledim
rıfat
simdi
düşüncenin
reçete
tanısı
köprülü
kapsar
yalnızlık
##laştırmak
gittikleri
darbeye
pok
illerden
üniversitelerde
getiriyoruz
güçlendirilmesi
##onlar
koşa
sünni
dezenf
taşıması
konuşuluyor
üyeliğine
##geçmiş
hattına
iradesine
royal
kurslar
iþ
##dakı
gerileme
kava
şarkısını
katr
rengarenk
üstünü
gözetim
nebze
suz
yk
##leştiren
zanlının
cru
almaktan
aleyhi
kararlarını
control
festivale
halkalı
tarafını
##mün
##bik
##leşir
başarıları
kavramının
##severlerin
fort
ölmek
albert
arabuluc
bağlamak
nicolas
kiraya
bağları
saldırısında
kurulun
yapısında
lem
ulaşabil
istemeye
##aye
kolektif
##ladi
ihtilaf
fra
dayanıklılık
alçı
arnavutköy
sevindirici
paraz
##zem
hikâyesi
boğuş
güvenc
zekeriya
sultanı
kredileri
önümüze
ulaşa
##iyetin
faalı
söke
konur
portre
##cağınıza
ayrıcalık
hareketini
verdikten
aber
kaşıntı
eşyası
viraj
biliş
ding
carol
yapmakla
araplar
kanyon
##çav
aih
##laşmak
asus
photo
##79
##lerinizden
akç
##ã®
beraberin
dakikalarda
174
şubeleri
çarptırıldı
başvurarak
muydu
alzheimer
şahinbey
rekol
kutlayan
gerçeğin
##menistan
kaldıran
boğuldu
ankar
reçet
baktığımız
zindan
##emre
225
touch
görüyordu
gözüm
tatilde
lon
nej
##ütün
yönetmelikte
ati
içgüdü
##üsüz
optimiz
gelmeyen
hotels
teveccü
hayatımızda
##ılmadı
journal
repor
kişidir
ivan
hayatınızda
olimpiyatları
tahsilat
##ûh
ıslem
hocanın
harekâtı
savaşında
gerçekleştirebilirsiniz
kazandığını
##ýna
##enta
yıkılan
ultrason
fide
çizel
şekline
çalınan
duvarlar
destanı
mw
134
koydum
sineması
gösteriyoruz
##rr
kaplumbağa
yuvası
doyası
eger
toplantılarda
maliyetli
birbirinin
kısık
##selâm
##umuzdan
yargının
##ızda
kayıtlarını
##ekir
bilgisayara
##onk
vesayet
cezayı
edebiliyor
terbiy
mahallelerde
zemini
hassasiyeti
aksat
rodrigu
verileceği
görmüştü
vücudunda
büyümenin
izleyin
süratle
kaliteyi
vatandaşlarının
##ût
abdü
sekilde
üyelerimiz
hosting
ihracatta
sürdürecek
tebess
tartışmalara
tanıtan
amaçlıyor
ergenlik
sporcuları
şekilleri
görüşen
sırayla
teps
barak
alle
##ures
tamamladık
internetin
anayasanın
implant
##bad
doyasıya
girmesini
sunulmuştur
poker
çarpmanın
kılar
görürüz
cizre
aktararak
peç
tabancayla
piyasadaki
sürmesi
kayg
takiben
refik
erkenden
##ıya
chica
memnunum
##ng
sandıkta
budak
etmiyoruz
dekorasyonu
ettirdi
dikdört
deşifre
##git
yüzünün
gerçekleşiyor
won
kentler
##lısınız
bitince
aşamaya
bangladeş
maar
gap
gruplarının
özürlü
##cho
ruj
know
şin
koymaya
imamı
##ater
cennete
beşer
##yad
megapiksel
kişide
amc
haftaki
baka
kesimin
ihtiş
sebeplerle
tahakkuk
##bilirsin
kitapçı
öngörü
##aryen
kiralamak
bursa´da
sesin
kongrede
şehvet
kalırken
gönderilecek
resimde
gözünden
güneyindeki
kayıplar
sarıkamış
gönderir
projelerde
kau
edildik
markasının
karayolunda
şartların
suçlamaları
ekonomiyi
ücretler
erasmus
tedavisine
##yürek
yetecek
battalgazi
büyüleyici
odadan
tarımda
ödemeye
öğretmenlere
zincirleme
##fah
kilisenin
rabia
jeotermal
dediğin
girin
getirirken
dizin
içerde
212
kafaya
##iyetine
##geni
nail
konsolosluk
sut
##ünüzün
yararlanma
##vler
oynayarak
mukaddes
##berry
haftayı
çevrelerinde
robotik
belirtilirken
suçlamasıyla
hekimler
ferman
nesnel
##tırken
hayatımın
yurdun
sertifikalı
değilmiş
spo
kütük
kolombiya
meram
çıkabilecek
kaçakçılığı
varsayı
tuğba
ekinci
ilişkilerinde
kabartma
arındırılmış
eniş
aselsan
##gis
turizmin
departman
birimlerinin
yapmayın
sağlayacağını
ülkelerle
badana
şarkılarını
peygamberin
##týr
yarının
##lığım
seyirler
başlayabilirsiniz
halleri
olmamıştı
geliştirdi
##ekkür
meçh
##müz
keten
yakalan
##еr
uygulamalarının
ıslam
kriterler
##ranın
akustik
futbolun
##ilay
yerindeki
turkıye
biçer
uzaklaştı
elebaşı
zeminde
fıkrasında
fair
sind
genişleme
götürecek
talepte
müsteşarı
##ume
âdem
arayışı
hakkıyla
iradesini
werden
ölümün
domain
bölümlerinde
öldürdüğü
koyuldu
anlattım
attılar
##eyip
emniyeti
indek
eklenmiştir
kıpır
meselenin
##dayken
meclisin
keh
mücadelesinin
karısının
borçlarını
diagne
istemediği
sayış
huzursuzluk
hüzünlü
meltem
nikâh
takipç
iddialarına
maydanoz
atlar
##rica
##lemi
liyakat
talimatları
##ular
kâin
near
kırmızılılar
bölme
nehr
satarak
ferit
kocaoğlu
lang
bankalara
suretle
görevinin
##abilirim
##lanmalıdır
birliğin
içers
öldürmeye
kyk
acıbadem
ziynet
simülasyon
##laziz
katıldığını
getirdim
land
##üyük
yâ
küst
tartışmalı
cv
olaylardan
##köprü
dediğiniz
geçirdim
ayrıcalıklı
trade
yetkileri
kurar
işinizi
bağlanmış
seviyelere
araştırmalara
kadroda
##rab
çektiğini
gösterilmiştir
edindiği
sinirli
aşçı
califor
##¦¦¦¦¦¦¦¦¦¦¦¦¦¦¦¦
refü
##ofya
capital
sayfalık
##ск
etli
diğerlerinden
yaratıcılık
mozaik
denktaş
kanununa
biskü
sedef
suçlardan
##dern
vurularak
değiştirecek
##09
##senger
gastronomi
anlaşmayı
değilsiniz
kapsayacak
sancı
işletmeciliği
üzülüyor
istihdamı
sinemaya
kayık
dergisinde
konuşarak
birbirlerinden
kurak
##ımdaki
kalifor
baskını
kayı
çevirmek
bilmiyordum
##antum
çalım
##alize
haiz
kentindeki
cocuk
yorucu
birisini
##bled
1800
vermeleri
biriyim
huzuruna
##post
simon
ılk
##gro
dişleri
noktalarından
inerek
parçasıdır
insülin
gurup
resmini
##kot
ilgiyi
savcılığa
tıc
mekanlar
dağa
güneşe
break
brown
çıkarlarını
sarıkaya
parçalarını
desteğin
ons
yapılmaması
##liğim
gelişmeye
ağlama
edinmiş
farkını
dilleri
profili
ıc
##ix
insanda
##liga
barına
kalacaktır
özelliklerinin
arkadaşın
sözcüğ
olaylarının
pab
mektupta
başları
çizgisi
çektirdi
hayalim
gemide
kırma
duyuran
dinliyor
serum
ettiğinde
##ýndan
insanının
##lerindendir
4k
akkuş
vamp
peters
orhangazi
kızdır
chicago
0212
##amdan
adımda
##ondu
programlarını
access
gördükten
arayanlar
##allen
##memeye
saldırılara
yaşayarak
yenilenmesi
aciz
142
teslimi
teveccüh
##eyken
##larn
önerg
başarmış
külliyesi
doğulu
yerdir
##cip
meçhul
değerin
duası
public
yemeye
özgeçmiş
bob
kesimlerinde
##dîn
durumdayız
sınırlama
stor
çalışmasında
sahtek
##light
etmesiyle
##lanmadığı
1940
idarec
etkinliğine
menzilli
numarasının
bulvar
yapılamaz
listenin
##ques
##izme
görüntülere
duvarın
yapılmakta
lgs
bölgesini
karne
varis
kron
muhafazakâr
bağlılık
görmeyi
yarışmacı
uzunluğundaki
yaparsa
##emezler
açılmasını
zorlukları
sözleşmeye
aracıyla
ınc
magnez
bulaşıcı
tamamlanacak
çakıl
planında
develop
##idye
merteb
kapalıçarşı
gazetelerde
malzemenin
teröristlere
isteğini
lady
efendimizin
yarışında
izini
bozuldu
##âni
kıvanç
çiftçinin
cevher
görünse
arkadaşıyla
rafa
manif
sevginin
cezalar
sesleniyorum
##leştirilmesi
parçasını
girdikleri
every
hayatları
hastalarının
yiyip
style
sın
başsavcılığınca
hez
liderliğinde
##ografya
##enizde
riske
##dab
enflasyonu
gözünün
organizatör
kaçırılan
süreler
mütev
donatılmış
##tıyoruz
partileri
##unup
habercisi
##iller
statüsü
kazandık
minnetle
düşürül
mesleğini
niteliğindeki
##är
ekranlara
küre
mercek
okay
basar
kuruluşlara
##lisans
türkmenistan
pano
söyleyin
lj
##arslan
apr
kurtarmaya
kapitalizmin
standartlara
isabetli
düşünüyordum
suriyelilerin
ödeyerek
##ito
düşündüğümüz
emirlikleri
riayet
peru
vitrin
ibni
beklemeden
kameralar
özil
lütfi
sırtına
batak
kavanoz
##ake
krize
söylenir
isterler
neo
buluyorum
johan
kaybının
temelleri
öneririm
bud
since
terazi
emo
desteklerini
dönüşüyor
ülkelerdeki
##lov
saksı
çiftler
senetleri
##fu
faks
commun
ekranın
kullanılmasını
dalları
unun
prostat
gs
işbirliğinde
drag
patlamada
misafirperver
dondurucu
önemle
vok
gerçekleştirdikleri
##koca
nadiren
saatin
mekte
evinize
##dükçe
primi
sattığı
altta
çıkıyordu
derinlemesine
göründü
odunpazarı
gerçekleştiriliyor
düşeni
chris
##ârı
kumpas
ikimiz
sitelerine
bugun
giysiler
büyüklükte
ayşen
yapıldığında
halisdemir
mesire
kirpik
talas
gezilecek
kük
maçlarını
ilginin
bakımını
kid
düşünüyorsunuz
yarayan
hıç
edilmeyen
conta
yolumuza
yaralılardan
ayasofya
##yatür
minnettar
ayla
merkezlerinin
toprakla
uzaklıktaki
kapitalizm
kurulmasını
büyülü
dgs
ettiniz
atılır
erteleme
pp
##izden
blue
endişeli
##emezdi
nerdeyse
geçmişin
akçay
gelenleri
1922
diğerlerinin
##ison
köşkü
düşünüyorsanız
amirleri
aden
sebepler
seferihisar
tanımayan
müslümanları
karabiber
##yayla
açıklıyor
topuz
kavgası
christian
şat
##üzyon
aslen
##lemesinde
sırtını
kampanyalar
ürünlerle
golünü
sürdürmeye
##acaklar
maaşları
türkan
etkilediğini
konularını
olmalıyız
yazmayı
naylon
uyuya
##îl
bakmayın
sisteminden
korkuluk
şaşırttı
##mene
ortalığı
sırr
##rie
indirebilirsiniz
şerh
çalışmasıyla
kötüsü
şampuan
geçimini
kuruluşundan
filmlerin
kurula
konutlar
##ality
sesiyle
yürütülmesi
benimse
hayvanat
anayasası
##latif
##lanmaması
güvenini
turizmde
##lasının
hamid
önlemlerin
düştüğ
ıssız
amacını
ây
##unch
planladığı
##ininin
okuyu
gitmiyor
##ikal
etmesin
##ars
tarıma
##âle
eko
##ılmayan
##igen
kaçıp
edildikten
filtr
geçirdiğini
azalta
önemliydi
bozulması
hesaplanan
diyorsanız
piksel
çektim
rütb
yurtdışından
158
terörü
biricik
##pus
gsy
##düğümüz
gast
lakap
##read
jeffrey
kurtarıcı
enteresan
senenin
ulaşın
gururla
gösterimi
toplumların
tire
projelerine
##ciliğin
##likli
baby
porsiyon
yetiştiren
sürdürülebilirlik
kursa
bilgisayarı
##ilan
yürekli
savaşlar
meydanda
##dettin
başlayacağını
durumlara
sayfamızda
adayının
toy
##58
yapacaklar
tesiste
cezaevinden
rende
türel
tesbih
reformu
şablon
arkadaşına
yakınlık
mütala
affed
galata
kaliforn
##ides
geliyorlar
işlemine
rauf
##pot
sıcaklığının
ünsal
arıyorsanız
battaniye
kardeşimiz
almalı
ulaşmaya
olayını
süreyi
kesilir
güçlen
kıvılcım
bölgemiz
bulamadım
##fî
planlayan
144
geldiklerinde
sağlarken
##hay
##medikçe
bitiminde
tags
yüzyıllar
hazırlayıp
yazılmıştır
yaratılmış
##seli
girdiğinde
ağırlığında
misyonu
goster
araştırılması
karla
okş
ihtiyaçlarının
##mekteydi
sualtı
içinse
empati
özellikleriyle
sergide
mahallelerinde
##uklu
regi
bitkisi
vatandaşlarımızı
##maç
diller
taraflardan
border
224
rakı
devrilen
ener
aşka
menajeri
mevkii
vermediği
düdük
olmamakla
nisbet
##ined
başkanımızın
koğ
firavun
minyatür
guar
einem
oluyorsunuz
özdil
131
etmenizi
kediler
müsabakaları
##tiğin
sadrazam
kimsesiz
even
dönüşmesi
jackson
uygulandığı
önerdi
goller
##esiydi
atıkların
konserde
yollarına
##ilebilen
acemi
kapık
kariyerinde
klo
araçlarına
sanatçıları
görmekteyiz
kalbinde
sporcusu
beyşehir
başarılara
çeyiz
edemiyor
parçalara
helikopterle
ayrılmaz
dilinin
vallah
kısı
raporlama
kırılgan
burhaniye
yatılı
##wski
##face
216
dela
türklere
town
mehdi
nakış
faizleri
sergen
##nem
dünyasından
hesaplarına
kariyeri
##yön
mab
##hava
sefere
elen
bittiği
ödüle
yattı
bahçeye
ağlar
ordusuna
denedim
çıkarılmış
hepimizi
##lýk
vereyim
##pers
xıı
orantılı
uyarıda
desteğine
seçilir
fazladan
##dakiler
etkilidir
alli
tüketiminin
dolarla
idarenin
eker
turnuvanın
müdürlükleri
eri
omega
daveti
##nt
camiler
temsili
yaradı
tehlikesinin
hack
tıbb
üretilmiştir
şartlarının
geçirmez
emp
ölçekte
edilmekte
varsayım
yardımları
sağlayacağı
##veli
bakmadan
gemiye
etiyop
hazırladıkları
##tso
üniversiteleri
##cumuz
##laştıran
tüketilen
suskun
başkom
umuyorum
magnezyum
##emeden
efsanevi
soci
yanlıştır
bahçeleri
şehirden
malesef
birincil
uyuyor
isimlerle
eşimin
seçimlerden
kırarak
##berto
##luktan
uçuşu
fitne
otonom
istemediğini
yazışma
çeşid
umre
algısı
çiftçilerin
yüklenen
sonları
nük
mevzuata
çalışmalardan
unutmayalım
gla
mağar
köpekleri
##lа
sabahları
hasad
france
1918
dizileri
aktarılması
arabalar
senegal
yasaktır
tampon
california
çığır
şehitlerimizin
dikdörtgen
imiş
karl
einer
antalya´da
sebzeler
own
##lamadığı
çalışılıyor
nedenden
kukla
seçmeli
ufa
teori
kaderi
tarçın
süryan
öneririz
gidilir
kilitli
hiyerarş
ılıcalı
sevincini
salonuna
steve
sirkü
sonuçla
getirebilir
yayılması
kabiliyeti
ilinin
gerçekleşmiş
clinton
amcası
nedeninin
dokunulmaz
##emit
kumsal
mani
hatlar
işbirliğinin
agresif
kazaları
valiz
story
ronal
orayı
##miþ
yaşamda
sağlıkta
diyorsunuz
değişmektedir
hall
paylaşıyoruz
##far
çevrildi
fib
tarzını
yaklaşırken
yerleşmiş
yeğeni
aur
kurun
senfon
teftiş
doğumdan
stephen
bırakılmış
fısılda
zür
daily
bakanlığa
tarafları
##gide
hissetmek
moz
odalarında
şehadet
politikalarını
##pin
ucundan
vurduğu
tüketilmesi
araçlarıyla
hidrok
##ader
##vers
##mate
diziler
yanıyor
acılar
açılmıştır
cho
name
götürüp
##ihat
inandırıcı
alınma
kaderini
türkoğlu
temsilen
##ville
##enha
süreliğine
kurulda
##abın
oluşturduk
sergilediği
sanatkarlar
balı
##ılacağı
jenn
izlenme
##via
gezmek
getirildiğini
dalgın
şehrimizin
aklımda
önerilir
karakterler
zenci
kalbini
başlayacağı
##çatı
court
hemşirelik
belgelerini
bıldır
olaylarla
##ism
rabbimiz
ibrâh
##zel
dikili
##ferik
ekiple
mora
umutlu
##vol
birinciliği
fuara
muhter
ziyaretine
onarımı
ach
eğitici
sardı
binalarda
##binlerce
güvenin
doğruyu
götürülen
bilgilerle
istediğimi
tövbe
geldiğimde
bulunduklarını
ferrar
militan
##şev
müsabakada
iddialarını
256
şeria
düzenledikleri
kaldığımız
gününün
mitin
semtinde
##bara
güdüm
erke
fotoğrafın
##akın
gelenlerin
yakut
kansere
##âli
hacer
kant
atışı
etmişler
çapa
##bullah
bn
pide
sevgiyi
gerçekleştirdiklerini
pep
bizlerle
ermiş
yardim
küpe
kuruluşlarında
tartıştığı
derince
kucağına
ailede
balıkçılık
adaylık
geçidi
yapılmamış
yakasında
hırsızlar
edward
ezgi
tutukluluk
##üğün
milyonun
önergesi
kıymetini
sistemlerin
jen
şakir
botan
nitelikleri
##dence
gelirin
bakıme
davetliler
##liğimize
##tikçe
canlarını
faaliyetlere
sali
görüşmelere
bıraktık
eğitimlerini
bahr
şehitlik
formülü
müdahalesinin
rekabetin
##dov
edebileceğiniz
security
mağazaları
sigarayı
##leşiyor
otomobiller
kurtlar
kelimelerin
uymak
seçmenin
##çalı
babasından
##lemizi
bağlanır
sınavında
##redi
koymuştur
başlayacağız
ejderha
başardık
çalışmalarımıza
nohut
vermenin
##ılsın
ilerlemeye
squ
aşarak
yanıp
inkı
hepiniz
hir
yöntemlerini
eğlenceler
param
gözlerinde
becerisi
potas
yetiştirdiği
quares
##ody
##akt
care
istes
defnedildi
gündoğdu
deneysel
liderliğini
kapılan
komplikasyon
savunmaya
aklından
##ipaşa
yüreği
önyargı
yoruma
topyek
##dığın
davasının
kavr
birşeyler
aşkına
##57
açılmasına
176
bayındırlık
turbo
bozulan
kamuoyunu
##gaç
yemekte
çekmişti
ortalarında
sina
disney
seyreder
karşılaşması
modası
girişimler
metodu
havaların
şehirlerarası
dire
uçağa
ürünlerimiz
analitik
aralıklı
tonluk
kişilerce
yararlanan
kullanılmayan
ilerledi
turlar
enerjisini
yerleştirilmiş
yaratmaya
gösterişli
mevl
hayranlık
sıkın
girmişti
gelirlerinin
boynuna
sektörler
accor
güncellemesi
görüldüğünü
uçaklarının
##akki
gebeli
mürettebat
alsan
##eceğin
##ello
düğmeye
kutlamaları
sayfalar
yapılma
gömülü
atabilirsiniz
eşinden
mık
açmıştır
kesinleşmiş
cumhuriyetimizin
faktörü
chp´li
ölüyor
şeyma
##mayacaklarını
denetimler
porselen
##ungen
arkadaşlarımızla
çinko
melo
content
şikayeti
başkanımıza
sahile
galler
bittiğinde
kimselerin
ediyorsanız
tüketiciye
yapılabilmesi
şile
izlanda
ulaşmasını
vurguluyor
elç
ryan
üyenin
çini
polisleri
rönes
keçe
öldürüldüğü
harbi
##resinde
ezilen
ikizler
çalgı
sözlerinin
dî
kendisinde
benziyordu
şartnam
kafat
makalemizde
gecekondu
siyan
##eva
beşir
komed
üyeleriyle
türüdür
müzikleri
gerçekleştireceğiz
jeopolitik
messenger
köl
renklerine
hizmetten
reklamlar
akıbet
sair
evlenen
sektörlerde
misafirler
acıyı
olmadıklarını
caret
sıkıntıya
çerkes
hepimize
eklenir
uygunsuz
türünde
şanzım
kalkıyor
insanoğlu
aydoğan
bakışı
patlak
gösterdik
becerik
yumuşat
##ulut
doub
saydam
##lasa
çevreci
ilkeler
satıs
itirazı
##öm
##reb
kesit
epeyce
ermeniler
tenisi
düzenlenmiştir
pierre
turn
azaltıl
izliyorsunuz
düzenlendiği
vurgusu
##aks
standardı
topluyor
bekleyin
kanunlar
##yasını
unutulmamalıdır
yağışlar
cebinden
metropol
tanrının
antonio
gezip
incelemenin
doğran
yaşanılan
biçimleri
sıyr
kapasitesini
##iyespor
##ista
kalkmış
tech
arkadaşlara
anastasiadis
verilmedi
muvaffak
insanla
düzeltmek
##osta
tedbirli
bayrakları
bembeyaz
hükümetine
buldular
card
bandı
nim
epi
##dey
içime
kardeşlerim
mahz
##tz
kasır
soldan
sahnelen
##cenin
silâh
izmirli
davacının
projesiyle
yüzeyi
öküz
ortaköy
insaf
hastaneden
menzil
kaldırmaya
verirse
aygün
hayri
çekirdeği
politikasına
mercim
yanındayız
devrilmesi
baygın
tanrım
etmemesi
fışkır
yayınlanmıştır
##ра
işlerden
grey
kampına
düm
##dragon
datça
horm
kamerada
yakan
söylediklerini
farkındayız
başarılarının
komşusu
laboratuvarı
aym
gaza
mekanın
erişilebilir
elinize
araştırmalarda
sayfanın
mevzuatı
girişine
buket
##vuru
açması
ındır
hamburg
##ayıcı
iddiasını
pazarın
melekler
antrenmanla
istanbul´a
uygarlık
yaşlılar
guaido
başlarda
uygulanmasına
moderatör
partide
sergiler
puanlar
verimi
önemse
##layabilmek
boyuna
body
erciş
uret
siverek
##stur
##enizin
önlisans
ediliyordu
bere
nesnelerin
##guay
güner
aktiviteler
amin
##ılıyordu
çekmece
##gane
işbirliğine
derinliği
tahkikat
ple
siteden
nasır
havalı
mücadelemiz
insanlığı
faız
tıkla
yemeğinde
##lines
milano
emekliye
feshed
yeterlik
kını
hücreler
getiriliyor
##oglu
##hop
aytaç
doğusundaki
babaları
pedal
vec
yapayım
işletmeye
bilişsel
maganda
çoğul
##ılacaktır
sorunlardan
action
titan
materyaller
bildirmek
tatvan
aram
şöyledir
dişli
görmekten
okuyorum
yardımlar
diline
zirvesinde
dm
##asıdır
izlenmesi
içindeydi
deal
beat
karıştırarak
##wan
anlaşmalar
bull
evinizin
kalmamıştı
dermat
rasyonel
yağan
reddeden
etkiye
##bers
müdahaleyi
etkisinden
ikiş
melikgazi
büyümesini
m²
seviyoruz
klasman
yunusemre
victoria
barındırıyor
sallayarak
belgenin
padişahın
ilden
##içe
uygulanıyor
şaman
akay
arter
kaygan
tatilciler
dikkatimi
yazış
büz
##latıp
##ılmakta
dolab
kardeşlerin
treni
programlarında
alfa
kolaylaştıran
hayrettin
râ
##lera
istisn
zamanları
toplanır
çağda
champion
esat
şantaj
işlenmesi
##ught
taşımaya
tekab
koza
gülümseme
linki
taştan
sivris
haberlerde
firmalardan
çocuklarıyla
beğenilen
çıkmıyor
sahilinde
kullanmıştı
kılıyor
##ýs
##laşmayı
çalıştırma
şikayetler
görüşerek
rabbi
hanımlar
alanından
yükseldiği
##xx
yetkililerine
organizasyonun
gideceği
444
terakki
çevrenin
devletine
##tücü
üniv
şentürk
istiyorsa
öldürülmesi
##ildikleri
##malara
parçaların
##etti
topun
ararken
gözleme
verilmelidir
1959
işlemlerde
yarımadası
çarpışma
toplanma
fire
sözleşmeleri
pilotu
kati
noch
ekibiyle
##04
yaratılan
zamanlarında
ekol
geçirmesi
çıkanlar
ngc
sapık
maddeyi
fizyo
sınıfında
hissediyordu
kalbim
portr
quaresma
yapmaktayız
çarpık
zeybekci
kaymakamımız
batıda
şikayetleri
açılma
dileklerini
hayalleri
şelale
evkur
temsilcilik
koltuğa
##sl
pentagon
temaslarda
insanoğlunun
##ace
##еn
hizbullah
destinasyon
##56
çekmektedir
hissedecek
##layacaktır
hazırlanacak
##otam
uzantısı
anlaşmazlık
faaliyetlerinde
##ürn
abart
sevdalı
ekleyen
kovuştur
görmektedir
belirti
tanıtımını
ilerledikçe
bakarsanız
almıştım
konj
##phy
kullanılmasına
##zeige
kık
örgütlen
tanzi
##lâl
mele
olmalısınız
venüs
istemektedir
thor
demo
ataş
##bali
edilenler
partn
geçmişteki
nişantaşı
kırıcı
uygulayarak
sahnesinde
sızan
baysal
derisi
ayaklanma
resort
şifr
##oni
istila
##ınal
sayılabilecek
izlenmiştir
##emişti
çıkarttı
bilgisayarlar
döndüğünde
almasının
açıcı
##usta
sosyoloji
sivrisinek
omuza
##rant
köylülerin
markalı
mesih
##vân
##vî
ormanda
seçimle
yükseldiğini
oyuncuya
hizmetlerimiz
yıprat
birimler
latif
sprey
kontenj
justin
solcu
##ileşme
sürmek
termik
tencere
mehter
kordon
haziranda
doğrulama
dükkanı
kaynağıdır
kıyma
##uğu
sokmak
ring
transferler
çözer
arkan
kahta
lys
komşuları
dörtlü
vd
yükümlüdür
tezahürat
teğmen
ayaklar
##bük
yarışan
kopuk
bulamadı
tahkim
##çasına
sağcı
adaylarına
bünyesine
span
pusula
still
tarıhı
kralın
pırlanta
elbistan
kimseden
geçiyordu
shan
gülünç
dikkatlice
harfi
##uka
ünvan
belirttiler
harran
menteşe
sikke
##down
değersiz
bağlayıcı
görüntülerin
##asıya
söylemi
ihracatının
anlatılıyor
görücü
kocasin
bono
oluşturmuş
gerçekleştirilmiştir
merkezden
lın
çik
kırılan
tofaş
oluna
ekler
kızına
uyumsuz
balıklar
##oloz
tanıştı
gediz
filipinler
istan
vuruyor
efendisi
aba
psikiyatri
##fur
örneklerini
edeyim
atleti
##reas
##vali
darbesi
##üel
binayı
emperyalizm
takipçi
mahkemesine
düzenlemenin
##ative
güneye
sunma
##akos
##emet
gelindiğinde
hücrelerin
birleştirerek
görevlerinden
sayıdaki
emeğin
dairenin
arıkan
farklılıkları
tümüne
east
arttırır
boynuz
edebileceği
şifalı
cambridge
düşüncesini
mf
düşmanlık
##tünün
mallar
konferansta
yahudilerin
mimarı
yöndeki
analizleri
giyecek
eurolea
goz
hent
reklamcılık
üniversiteli
yenisi
bow
mütevelli
doğmuştur
şampiyonasında
niyetinde
isimlerinin
illerinde
##dekı
trol
kırışık
hedeflenen
yazımı
zım
beyni
##eşil
##keş
kimlerin
gösterilir
kullanımında
müziğe
rahatlık
çocukken
ürünlerinden
potasyum
kurumlarından
arkadaşlarımıza
peda
aylin
ayındaki
disco
başladığımız
güneşten
sattı
ilacın
üzerime
mazot
##ome
hedefiyle
##lanmakta
ıraklı
vallahi
elçisi
târî
##eliğin
beklendiği
gururlu
çevirip
yengeç
defen
yaralar
bedenin
tanzimat
##iliğinde
##oman
metreye
intih
uçaklar
##iano
süreçlerini
hayatlarında
aşağıdan
üniversitesinin
orig
açılışta
yl
gerilimi
şehzadeler
vuku
mazhar
oturuyordu
donatı
silk
destekleyecek
parti´nin
##oun
görülme
aileyi
xperia
##zâde
baktık
gevşek
alaşehir
ittifakının
hamlesi
##kamil
belediyeleri
cüzdanı
bilezik
kazandırdı
tablolar
makaleler
tasarıma
slovenya
pelin
binerek
anzeige
eyüpsultan
alaka
alacaklı
ağlara
seçen
aynısını
kameraya
etkilerinin
kefalet
created
fly
sapanca
yazısını
tekke
korudu
ferrari
iklimi
kupayı
##tırabilir
erkeğe
planının
aktarım
kauçuk
horasan
türünden
##very
suv
mahs
önler
##maktaydı
akbaş
payları
payının
ödünç
istanbul´un
tanışmak
##uten
cereyan
ayaklarının
gelişmesini
##arbon
##isiydi
1954
arazinin
birol
kulluk
##laşarak
izmir´in
yüreğir
ispanyolca
kiev
european
kararlarına
havalandır
milis
kameraları
akbaba
kanın
gitmesini
içeriden
sevgilim
hidrojen
adanaspor
ölümlü
diğerlerine
boyutlarda
alanlardan
etkinliğini
einen
kanaatinde
ağları
batur
uygulanmaktadır
futbola
cesedin
tl´ye
##dition
adamdı
oynamış
adıma
sign
cebine
artmaya
silif
ensar
turistin
ziyaretin
uygulamadan
##ilin
insandan
görüşünde
doldurarak
sağdan
narin
gölgesinde
meşrut
çatalca
analistler
turnuvaya
faul
kepenk
prototip
roland
konularla
gizlenmiş
noktasından
engellenmesi
tutuldu
##но
serginin
kontak
desem
rese
şehrinin
çıkın
olmadık
tcdd
gideceğim
töre
potansiyelini
##ebilirim
adren
edilmesiyle
indirgen
olamayacağını
karamsar
tag
kafet
karabulut
hand
kürsüye
tosya
##ather
karısını
sahipsiz
foreks
etabı
avı
takipçiler
dergisinin
vatansever
dıl
çıkarılacak
gördüler
evim
bitmek
allâh
turuna
akıllara
uyul
##jk
yüzündeki
ekliyor
sıkıca
cadı
çalışmayla
vuruldu
bayramlaştı
köşesine
##bran
sıt
1400
çalışmamız
çevirerek
belediyemizin
halinin
toka
judo
sorularına
sabırla
güzeldir
metin2
ulaştırmak
ortamına
cumhurbaşkanının
amacım
oluşumunu
başınıza
##lığımız
tesadüfen
değiştirilmiştir
helen
abidin
oğlak
1938
ikon
tacir
##dt
kulağa
saddam
toroslar
muhak
bütünlüğünü
ümid
kocasinan
ruhunun
##ilebileceğini
karsi
today
bahsedilen
interaktif
aihm
şahıslara
abdnin
kanallar
##nas
cazib
savru
##ğuna
dışkı
izinli
kaybedecek
siyanür
cola
etmektedirler
şehitlerimize
mouse
##link
seçeneklerini
balina
vip
giderse
tanıtıl
açmıştı
doğacak
sürdürürken
peygamberimizin
kuşağı
kuzeydoğu
##erica
ribaund
unutmuş
boyalı
otobüste
düşmanın
yollarında
antlaşma
gururu
kattan
belirtelim
alaçatı
müdafaa
çalmaya
türker
gelebil
kalabalığın
rulo
geçtiler
üretilmektedir
##54
işbirliğini
linç
gelirdi
##cent
vasiyet
##gest
##rates
tekabül
demon
göçebe
korunmasına
ekici
mâlik
##nastik
solar
iyileştirilmesi
ilginizi
nane
değerlendirilir
müesses
daldı
yakışan
offici
modülü
##sol
oluşturu
##mele
jac
##suyu
kalenin
gitgide
lum
bitişik
yazacak
history
yaptınız
##bayla
##meyeceğiz
hukuksuz
fosfor
korkuyorum
koşullara
taşıyarak
hayallerini
beraberliği
ayakkabılar
olmama
övg
engellemeye
nominal
##tical
telaff
diyeti
pad
operatörü
çağrılan
kön
konuştuğu
edebilirler
tatbikatı
bölgelerinden
uh
otellerin
gıder
tanıtma
modellerinde
kadr
işlemek
istiyorsan
tavsiyesi
yönleri
projelendir
dosyanın
doug
imzasını
mücahit
gözlerim
paralı
istemiyordu
mesajlaşma
kalbine
ödülüne
480
kursuna
beca
bakanları
bildirir
fantezi
##opotam
düşmüştü
derslerin
spk
anlatacağım
otoriter
should
salman
şampiyonada
##gt
kavim
değerindeki
gerçekleştirmiş
orgaz
gmail
emred
sınıfına
jav
##abah
haftas
##sunlar
berkay
tebessüm
atmayı
inanı
eyf
##ister
seyrek
nöbeti
şehirdeki
topraklarını
performansıyla
kökü
ıran
güllü
sevindim
boston
##âhir
hisseden
kalıntıları
bulabileceğiniz
bebeğe
eyv
anavatan
ifşa
zerre
##ğimde
##83
mavil
##iza
politikalarının
biyo
buluşturdu
##ıran
beyanname
grek
alınmaktadır
kesinleş
sungur
savcılar
futbolcuları
faturası
##life
hazırlar
vajin
dönüştürmek
##tul
imzasıyla
değiştiğini
yazarların
lastiği
mücadelesine
döndüğünü
kh
diğerinin
ortalamasının
illegal
dortmund
cezanın
ölecek
korkak
veritabanı
kl
fro
turku
##leyecektir
place
ataması
ikincil
gölün
eğlendir
cila
islâmî
bulunabilirsiniz
ass
##cuma
##tech
göbeklitepe
çalışırlar
gercekles
olamayan
taleplerinin
ikişer
lafı
yatağında
kantar
yemeğin
maarif
mesleğe
laiklik
tutucu
maran
sayıştay
sitesindeki
kardeşlerimize
eleştirmen
soluğu
taktı
ales
bdp
dalgası
sıhhat
bittiğini
varsayılan
kızımın
şahan
guven
onkoloji
sayılması
türde
caretta
iddianame
bağlanması
uzaya
değildim
değere
uygulamalarında
erkeklerle
bahsediyoruz
dokuzuncu
uzm
çed
##basyon
gözlerinden
üretilmesi
renklendir
şehrimize
okunur
##muyordu
kızla
tesislerin
hurriyet
gözetiminde
koruyarak
arşivi
meşe
gittiğinde
canlılar
geçirmeyi
gerekenleri
##emens
köyden
eff
paraşüt
##ğındaki
cezasının
konutun
morgan
aktara
sz
düzenlenir
ago
teknolojisini
uçakta
çatışmaların
yapabilirler
plaz
sayımı
nüsha
kitlesi
abdi
karakterleri
boşalan
##stone
benze
nötr
fenerbahçeli
müddetçe
gruplarına
##ogra
uyandıran
##çiçek
paylaşmaya
bilgisayarın
câmi
tanınır
koşulların
bilmeniz
uçağının
tedarikçiler
kulağına
##ihi
gençlerimize
çekiliyor
bitirdikten
ikmal
kentine
mahiyet
gözdesi
dinlemeye
gözyaşlarına
gelişir
fiyatlarındaki
renklerin
ağac
kavaklı
haftadan
tso
notunu
çomak
uzmanların
kazık
uygulanmasını
ayrılırken
##âmet
hazırlandığı
pegas
çalışmakta
cezalı
email
olayının
mimarlar
##mistir
kategorilerinde
kayış
anlaşılacağı
ny
vereceklerini
##aktadır
##üzzaman
izlem
edep
azalan
açıklamalarına
sayfayı
boyle
geçenlere
very
asso
kökten
fesih
sistemden
bilincini
geldiğim
arafat
bizlerde
üyelerimizin
albümün
patrik
bozdu
eserlerinin
sürmüş
149
steril
hans
tüketmek
stratejileri
keşfetmek
sezai
olmayınca
zenginliği
taşımacı
şehitkamil
ehemm
kazın
şii
tanrısı
suça
eşyalarını
karakaş
kaplayan
dokunun
ihtiyaca
lenf
gazilerimize
cesareti
kasabasında
pudra
zararlar
1962
canlıların
##rac
sarayın
hazir
çalışmıyor
gönlünü
restoranda
çekilerek
koşuyor
##îb
odalarda
batar
euroleague
##stür
ankarada
bulmakta
point
köpeklerin
hob
müba
kullananlar
bariz
duruşunda
##esk
##tý
eylemin
girmesine
gideceğini
kısalt
abdülhamit
maçından
arabaları
açılıp
ava
##pazar
kitaptan
evlendir
kuşların
kla
soracak
yükseltti
anlaşmaları
oturumda
ceha
hayranları
bakanlıktan
güzelliğini
atıfta
türlerinin
standı
ulan
vatanın
166
helva
##diveni
finansmanı
##dıl
faili
aldan
rönesans
özendir
821
clar
kedinin
programından
çizgiler
döndük
##vard
safha
yeşilçam
slovak
kendileriyle
kağıtları
enfeksiyonu
ekonomisini
ciltte
durumunuz
ölçümü
latince
157
milat
modellerinin
konserler
etrafını
tutulduğu
dönüşümün
kanaması
yapanlara
##asta
sadaka
haşere
##mah
bölünmez
ödüyor
kadin
##tika
ayırdı
says
ilkelerine
diliyle
##mond
başkal
düşmana
çalışanın
kayma
vermeyeceğiz
##tgen
tuttuğ
dinlem
merkezefendi
ziyaretler
detayı
sant
##leddin
videosunu
zeynel
yev
yazıldığı
derledik
gaga
akit
toplanacak
niyazi
salça
gecen
aviv
kombinasyon
geçiyoruz
lansman
minister
sonucun
vermeyin
formda
anlaşmasının
çoğalt
erdoğanın
##uv
ayd
suçunu
dengeyi
doğuda
kopan
üreterek
##esiniz
gittiğim
kazadan
işverenin
önemsiyoruz
veric
olursun
##reden
konkor
dolaşıp
sevil
emrine
##taya
yiyor
temsilcimiz
seçerken
kurumlarda
scott
1924
görmüştür
tms
##yıp
çekilir
kapağını
##tab
143
##başkanı
atakan
kıyasıya
ekonomist
because
içersinde
kahvesi
gorus
ritim
little
##etim
etrafta
hesabınıza
boşnak
##ovo
kota
binek
şeytanın
ablası
sosyalizm
kaliforniya
hanımefendi
teşkilatının
atıldığı
almamız
mektep
araçlardan
##lion
araziye
##mazken
natur
##anıza
içimizde
günübirlik
##ılacağını
##igo
##yazdır
##ılmıyor
uçakların
deneyimlerini
katılanlar
durumlarını
lokman
takılı
sitelere
health
dedesi
tipleri
kapsül
##meyiniz
hatırlar
##fie
##49
sevıy
korte
güvenen
ediyordum
çerçevesi
karşılamaya
sco
sepeti
koluna
islamiyet
wifi
olmuşlardır
namazın
must
bağlantılar
düğünü
manşetleri
hedefinin
birazcık
papat
onayladı
yeşim
akılcı
gülşen
sözleşmeyi
deliller
çalıyor
tabiî
erişkin
kameralara
allahın
silifke
mecidiy
alınabilecek
title
obje
service
dirsek
ortamını
fedakarlık
sağlandığı
dies
sid
##´ndaki
kuantum
sergilenen
##log
sirke
vatana
repo
sürücülere
tartışılan
213
büyümeyi
then
almanlar
seçtiğiniz
medyayı
uygulamalarına
yunanca
kram
ameliyata
sparta
ayan
hentbol
taleplerine
demiştim
fernando
spesi
tescilli
kaldıklarını
research
##bulut
bedenine
yakaladığı
sormuş
süreçten
artik
petersburg
215
sadi
doksan
##´le
gerisi
darbeyi
##cine
edilmemiş
gözün
değilsin
ilerlerken
alabileceğiniz
caddesinde
onursal
geometrik
laur
koparı
saatini
##ebilecekleri
gözlerimi
koro
##landırmak
aşısı
kıpırda
##güzel
moloz
##anızın
haliliye
level
aleyhinde
şirkette
kuvvetlendir
telefonların
mezopotam
belgesini
düzeltmeler
trom
katılıp
eşyanın
kelimesini
konudur
heyetin
trafiğin
acem
notebook
##ash
##ecen
yapılmadan
cammu
interneti
##boz
korkudan
kazanmıştı
pazaryeri
kenarı
sound
arttıran
borsada
yükselecek
vergileri
ihtir
bell
sistemlerine
ödenir
katılımın
yönlerden
acentesi
gözlerin
angela
kokan
gösterici
mahalleleri
sitelerinden
liranın
paraların
boyutlara
vücuttaki
##uss
##ilikle
belgrad
muhterem
biyograf
olmadıkları
akreditasyon
yabancılara
mili
##lanınca
kapasitesinin
matematiksel
kediyi
feyzi
kalmayıp
cul
münir
oranlarda
kalitesinde
secımı
kurulur
faaliyetlerde
otobüse
uv
mekanlarda
mısırlı
tevhid
gelişti
sının
kırılması
metrobüs
##lioğlu
gösterdiler
##giniz
tex
kamulaştırma
´´
sitemizi
kirlilik
##ğinize
kararlarının
aytemiz
mach
fotograf
viş
##´nci
geçmez
yazmıştır
dakikaya
dramatik
kadastro
muğ
##memesine
wan
yandex
adedi
mültecilerin
böceği
sınırındaki
evlerinden
nebi
alanlarından
hakkımız
maskesi
getirilecek
sput
inatçı
ayağının
işliyor
gelmekte
union
gezici
1921
balyoz
birka
açıklamış
sözüm
öneriyoruz
here
buradayım
ebubekir
meet
genelge
midi
edeme
florida
bedenini
tatlısı
patik
turkiye
aylarca
arabuluculuk
rahman
apk
göründüğü
casusluk
nasib
kaçırmayın
##nâme
##olun
hepsinde
zehirlenmesi
exper
kaçı
projelerinde
amaçlarının
hafriyat
usulsüzlük
ayin
dalgalı
asırlık
söylüyoruz
düzenlemelerin
such
##ırsanız
hayranı
kübra
beyi
hâline
doğusu
##ders
ölçüsü
farkları
bitim
bacakları
hesaplarından
##addin
münaf
hatırlamıyorum
ihtil
##ceyi
anın
soyadınız
tezcan
kurduğumuz
başlayacaktır
kahvaltıda
bahsettiğim
fizyolojik
ronaldo
nöro
##lebi
müjdesini
palt
bulunmasını
yapabilen
dönemleri
geçiniz
##ruh
istiyorsun
mercimek
fall
anarş
çekildiği
ifadesiyle
##tıyordu
makineler
##lanmalı
192
##ölç
[...]
